{"<s>":0,"<pad>":1,"</s>":2,"<unk>":3,"<mask>":4,"!":5,"\"":6,"#":7,"$":8,"%":9,"&":10,"'":11,"(":12,")":13,"*":14,"+":15,",":16,"-":17,".":18,"/":19,"0":20,"1":21,"2":22,"3":23,"4":24,"5":25,"6":26,"7":27,"8":28,"9":29,":":30,";":31,"<":32,"=":33,">":34,"?":35,"@":36,"A":37,"B":38,"C":39,"D":40,"E":41,"F":42,"G":43,"H":44,"I":45,"J":46,"K":47,"L":48,"M":49,"N":50,"O":51,"P":52,"Q":53,"R":54,"S":55,"T":56,"U":57,"V":58,"W":59,"X":60,"Y":61,"Z":62,"[":63,"\\":64,"]":65,"^":66,"_":67,"`":68,"a":69,"b":70,"c":71,"d":72,"e":73,"f":74,"g":75,"h":76,"i":77,"j":78,"k":79,"l":80,"m":81,"n":82,"o":83,"p":84,"q":85,"r":86,"s":87,"t":88,"u":89,"v":90,"w":91,"x":92,"y":93,"z":94,"{":95,"|":96,"}":97,"~":98,"¡":99,"¢":100,"£":101,"¤":102,"¥":103,"¦":104,"§":105,"¨":106,"©":107,"ª":108,"«":109,"¬":110,"®":111,"¯":112,"°":113,"±":114,"²":115,"³":116,"´":117,"µ":118,"¶":119,"·":120,"¸":121,"¹":122,"º":123,"»":124,"¼":125,"½":126,"¾":127,"¿":128,"À":129,"Á":130,"Â":131,"Ã":132,"Ä":133,"Å":134,"Æ":135,"Ç":136,"È":137,"É":138,"Ê":139,"Ë":140,"Ì":141,"Í":142,"Î":143,"Ï":144,"Ð":145,"Ñ":146,"Ò":147,"Ó":148,"Ô":149,"Õ":150,"Ö":151,"×":152,"Ø":153,"Ù":154,"Ú":155,"Û":156,"Ü":157,"Ý":158,"Þ":159,"ß":160,"à":161,"á":162,"â":163,"ã":164,"ä":165,"å":166,"æ":167,"ç":168,"è":169,"é":170,"ê":171,"ë":172,"ì":173,"í":174,"î":175,"ï":176,"ð":177,"ñ":178,"ò":179,"ó":180,"ô":181,"õ":182,"ö":183,"÷":184,"ø":185,"ù":186,"ú":187,"û":188,"ü":189,"ý":190,"þ":191,"ÿ":192,"Ā":193,"ā":194,"Ă":195,"ă":196,"Ą":197,"ą":198,"Ć":199,"ć":200,"Ĉ":201,"ĉ":202,"Ċ":203,"ċ":204,"Č":205,"č":206,"Ď":207,"ď":208,"Đ":209,"đ":210,"Ē":211,"ē":212,"Ĕ":213,"ĕ":214,"Ė":215,"ė":216,"Ę":217,"ę":218,"Ě":219,"ě":220,"Ĝ":221,"ĝ":222,"Ğ":223,"ğ":224,"Ġ":225,"ġ":226,"Ģ":227,"ģ":228,"Ĥ":229,"ĥ":230,"Ħ":231,"ħ":232,"Ĩ":233,"ĩ":234,"Ī":235,"ī":236,"Ĭ":237,"ĭ":238,"Į":239,"į":240,"İ":241,"ı":242,"Ĳ":243,"ĳ":244,"Ĵ":245,"ĵ":246,"Ķ":247,"ķ":248,"ĸ":249,"Ĺ":250,"ĺ":251,"Ļ":252,"ļ":253,"Ľ":254,"ľ":255,"Ŀ":256,"ŀ":257,"Ł":258,"ł":259,"Ń":260,"in":261,"Ġa":262,"Ġt":263,"re":264,"on":265,"ti":266,"he":267,"en":268,"Ġc":269,"Ġs":270,"Ġo":271,"te":272,"Ġthe":273,"Ġp":274,"Ġin":275,"al":276,"Ġan":277,"es":278,"or":279,"Ġw":280,"Ġof":281,"Ġd":282,"is":283,"ro":284,"er":285,"Ġm":286,"an":287,"tion":288,"Ġf":289,"Ġand":290,"ic":291,"ed":292,"it":293,"Ġb":294,"as":295,"Ġre":296,"ar":297,"ing":298,"us":299,"at":300,"ec":301,"Ġe":302,"vi":303,"Ġh":304,"Ġto":305,"ve":306,"ent":307,"le":308,"Ġn":309,"ation":310,"ate":311,"ac":312,"ly":313,"Ġth":314,"Ġ(":315,"om":316,"ul":317,"un":318,"os":319,"vir":320,"im":321,"ol":322,"Ġl":323,"ur":324,"el":325,"id":326,"Ġg":327,"Ġpro":328,"tr":329,"ter":330,"Ġwe":331,"ith":332,"Ġfor":333,"Ġwith":334,"ig":335,"ce":336,"il":337,"Ġr":338,"Ġcon":339,"Ġas":340,"Ġres":341,"fec":342,"Ġde":343,"virus":344,"uc":345,"et":346,"if":347,"ted":348,"od":349,"Ġis":350,"res":351,"tic":352,"ir":353,"ts":354,"um":355,"og":356,"Ġv":357,"am":358,"ow":359,"ated":360,"ut":361,"ity":362,"op":363,"Ġthat":364,"oc":365,"ot":366,"Ġon":367,"Ġ1":368,"ati":369,"Ġex":370,"Ġst":371,"ver":372,"ion":373,"ain":374,"Ġbe":375,"qu":376,"Ġ2":377,"ab":378,"Ġcom":379,"ell":380,"Ġdis":381,"Ġwere":382,"Ġal":383,"ud":384,"se":385,"Ġinfec":386,"Ġac":387,"Ġim":388,"ys":389,"ag":390,"ad":391,"Ġwas":392,"rom":393,"ap":394,"ment":395,"Ġby":396,"Ġvirus":397,"pl":398,"Ġch":399,"ib":400,"ase":401,"her":402,"Ġse":403,"ical":404,"Ġtr":405,"ine":406,"th":407,"ies":408,"Ġare":409,"Ġco":410,"red":411,"Ġor":412,"Ġhe":413,"tive":414,"ant":415,"ren":416,"Ġresp":417,"und":418,"em":419,"Ġus":420,"Ġsp":421,"Ġen":422,"Ġthis":423,"Ġfrom":424,"ers":425,"ents":426,"ess":427,"Ġcell":428,"ans":429,"vel":430,"Ġsu":431,"ay":432,"Ġgen":433,"co":434,"iz":435,"Ġprote":436,"ory":437,"Ġne":438,"Ġinfection":439,"vid":440,"por":441,"Ġwh":442,"Ġcomp":443,"ous":444,"enti":445,"and":446,"Ġad":447,"Ġinc":448,"igh":449,"Ġat":450,"Ġstud":451,"duc":452,"st":453,"viral":454,"ge":455,"ence":456,"ure":457,"ri":458,"ens":459,"Ġanti":460,"Ġdi":461,"ath":462,"Ġcl":463,"atory":464,"Ġinf":465,"olog":466,"ific":467,"ost":468,"Ġk":469,"Ġstr":470,"Ġsh":471,"Ġpati":472,"ign":473,"ch":474,"ress":475,"ore":476,"mun":477,"ations":478,"Ġha":479,"act":480,"Ġdise":481,"Ġass":482,"ial":483,"Ġprotein":484,"Ġ3":485,"na":486,"Ġexp":487,"yp":488,"ia":489,"up":490,"Ġef":491,"Ġtrans":492,"ars":493,"Ġpre":494,"mon":495,"ich":496,"Ġle":497,"Ġap":498,"ug":499,"Ġcont":500,"Ġinter":501,"00":502,"ther":503,"Ġmod":504,"Ġit":505,"tiv":506,"Ġpatients":507,"Ġhave":508,"est":509,"pro":510,"ases":511,"ary":512,"orm":513,"Ġviral":514,"di":515,"cov":516,"fe":517,"Ġun":518,"Ġpar":519,"Ġrec":520,"ph":521,"Ġthese":522,"ved":523,"Ġimmun":524,"Ġcor":525,"Ġper":526,"ak":527,"Ġcan":528,"tions":529,"ased":530,"Ġspec":531,"Ġresul":532,"ular":533,"lu":534,"Ġrespir":535,"Ġpath":536,"enc":537,"ome":538,"pt":539,"Ġwhich":540,"iti":541,"ding":542,"ip":543,"Ġca":544,"port":545,"ill":546,"Ġmet":547,"able":548,"ance":549,"Ġdif":550,"ub":551,"ally":552,"Ġcells":553,"rol":554,"ors":555,"Ġstudy":556,"Ġsy":557,"Ġrespiratory":558,"Ġanal":559,"Ġsign":560,"Ġdisease":561,"feren":562,"Ġhum":563,"Ġag":564,"we":565,"19":566,"to":567,"Ġhas":568,"velop":569,"ied":570,"ative":571,"tem":572,"Ġev":573,"age":574,"fic":575,"Ġpl":576,"Ġnot":577,"cr":578,"alth":579,"Ġep":580,"avirus":581,"ction":582,"Ġhigh":583,"Ġ4":584,"Ġreg":585,"ist":586,"Ġid":587,"plic":588,"Ġ5":589,"ates":590,"Ġno":591,"Ġab":592,"Ġhealth":593,"Ġbet":594,"Ġeffec":595,"Ġaf":596,"Ġmodel":597,"Ġdat":598,"Ġbeen":599,"all":600,"Ġall":601,"Ġ0":602,"Ġcons":603,"Ġdevelop":604,"Ġout":605,"Ġund":606,"de":607,"oci":608,"ari":609,"Ġshow":610,"Ġdifferen":611,"Ġ20":612,"ogen":613,"Ġ[":614,"iss":615,"Ġdes":616,"Ġy":617,"the":618,"ik":619,"ugh":620,"Ġrespon":621,"Ġsub":622,"Ġgro":623,"Ġidenti":624,"reat":625,"cl":626,"ple":627,"Ġdete":628,"ne":629,"Ġviruses":630,"ast":631,"acter":632,"Ġro":633,"ose":634,"so":635,"min":636,"Ġresults":637,"Ġpres":638,"acc":639,"Ġhuman":640,"ven":641,"Ġph":642,"hod":643,"emic":644,"Ġpos":645,"ting":646,"Ġsars":647,"ute":648,"Ġpr":649,"Ġob":650,"Ġclin":651,"ive":652,"Ġfo":653,"onavirus":654,"ystem":655,"Ġmic":656,"ide":657,"Ġem":658,"ays":659,"Ġpo":660,"ech":661,"Ġincl":662,"str":663,"Ġman":664,"ves":665,"Ġalso":666,"tim":667,"Ġvacc":668,"ween":669,"end":670,"ue":671,"Ġbetween":672,"ass":673,"rap":674,"Ġsystem":675,"Ġdata":676,"Ġwhe":677,"Ġusing":678,"oll":679,"pec":680,"Ġmore":681,"Ġsur":682,"ew":683,"Ġanalys":684,"Ġinclud":685,"Ġsam":686,"Ġbi":687,"Ġother":688,"Ġmed":689,"Ġme":690,"Ġsc":691,"Ġsuc":692,"ach":693,"Ġdur":694,"Ġsyn":695,"ct":696,"Ġmethod":697,"Ġincre":698,"ized":699,"ression":700,"Ġhow":701,"ros":702,"ility":703,"Ġtheir":704,"Ġclinical":705,"ong":706,"Ġqu":707,"Ġtw":708,"Ġinflu":709,"enz":710,"uld":711,"lo":712,"ms":713,"Ġrel":714,"Ġcoronavirus":715,"als":716,"Ġsignific":717,"Ġar":718,"ulation":719,"gen":720,"ite":721,"Ġidentif":722,"tivity":723,"Ġj":724,"erg":725,"Ġcaus":726,"ild":727,"Ġwor":728,"hib":729,"ds":730,"Ġmay":731,"ating":732,"Ġrna":733,"Ġ6":734,"Ġassoci":735,"Ġsequ":736,"uct":737,"enza":738,"ever":739,"ures":740,"form":741,"ological":742,"Ġour":743,"Ġsignificant":744,"cess":745,"usion":746,"Ġind":747,"Ġ9":748,"Ġused":749,"iv":750,"Ġcovid":751,"Ġgene":752,"ines":753,"out":754,"per":755,"ack":756,"tal":757,"yl":758,"Ġtwo":759,"Ġbut":760,"ology":761,"Ġpot":762,"Ġcontrol":763,"ree":764,"ber":765,"Ġthan":766,"ung":767,"Ġduring":768,"Ġi":769,"ential":770,"duced":771,"Ġthere":772,"inding":773,"ear":774,"Ġvari":775,"Ġepid":776,"Ġgroup":777,"oth":778,"Ġser":779,"ail":780,"itive":781,"Ġantib":782,"Ġmost":783,"med":784,"Ġnew":785,"Ġtreat":786,"ike":787,"Ġprovid":788,"Ġtim":789,"Ġnon":790,"Ġinfections":791,"Ġsim":792,"br":793,"ains":794,"miss":795,"Ġanalysis":796,"Ġimport":797,"nos":798,"Ġel":799,"Ġ7":800,"Ġnum":801,"Ġinfluenza":802,"Ġover":803,"ype":804,"Ġpe":805,"Ġsuch":806,"Ġits":807,"ization":808,"ight":809,"Ġboth":810,"Ġcy":811,"Ġappro":812,"Ġcases":813,"Ġfact":814,"ution":815,"Ġris":816,"Ġdec":817,"ared":818,"Ġvi":819,"Ġinhib":820,"vere":821,"Ġdifferent":822,"ang":823,"arg":824,"Ġone":825,"ubl":826,"Ġproteins":827,"now":828,"alu":829,"ect":830,"Ġlevel":831,"Ġuse":832,"our":833,"gg":834,"Ġmul":835,"Ġes":836,"ace":837,"Ġdiag":838,"ucle":839,"Ġtreatment":840,"ult":841,"Ġstruct":842,"Ġhos":843,"Ġz":844,"anis":845,"anc":846,"amm":847,"mission":848,"bre":849,"Ġfun":850,"Ġhowever":851,"Ġstudies":852,"Ġmon":853,"Ġassociated":854,"Ġafter":855,"Ġcomple":856,"atic":857,"Ġif":858,"20":859,"Ġpartic":860,"Ġdiagnos":861,"Ġrisk":862,"tain":863,"ten":864,"Ġsampl":865,"entr":866,"ective":867,"pit":868,"ser":869,"val":870,"duction":871,"view":872,"Ġlow":873,"der":874,"Ġinto":875,"ination":876,"ition":877,"plication":878,"pti":879,"Ġdr":880,"Ġhost":881,"Ġpubl":882,"tious":883,"Ġ8":884,"Ġhad":885,"Ġexpression":886,"Ġsugg":887,"Ġagain":888,"Ġacute":889,"fer":890,"Ġsevere":891,"Ġtime":892,"Ġantibod":893,"Ġagainst":894,"mo":895,"rent":896,"ile":897,"ps":898,"cept":899,"cur":900,"Ã©":901,"Ġmor":902,"ovirus":903,"Ġfur":904,"ie":905,"Ġdiseases":906,"olec":907,"hed":908,"break":909,"ently":910,"trib":911,"Ġpathogen":912,"Ġma":913,"Ġoutbreak":914,"Ġgener":915,"Ġinfectious":916,"tical":917,"Ġfurther":918,"Ġtherap":919,"Ġchar":920,"Ġfound":921,"ants":922,"Ġcoun":923,"Ġpred":924,"Ġincluding":925,"Ġwell":926,"rough":927,"Ġmulti":928,"Ġ10":929,"Ġhospit":930,"Ġcur":931,"are":932,"read":933,"Ġspecific":934,"ited":935,"ected":936,"dition":937,"neum":938,"Ġpop":939,"Ġsup":940,"Ġop":941,"Ġimportant":942,"ible":943,"Ġimmune":944,"Ġpotential":945,"Ġmech":946,"tig":947,"Ġnumber":948,"Ġemerg":949,"10":950,"Ġup":951,"gr":952,"Ġsamples":953,"ational":954,"Ġchild":955,"Ġfr":956,"Ġsever":957,"Ġbr":958,"Ġcharacter":959,"Ġresponse":960,"fici":961,"ns":962,"pos":963,"Ġpresent":964,"Ġmolec":965,"Ġdevelopment":966,"lym":967,"ural":968,"Ġidentified":969,"rome":970,"mpt":971,"Ġfir":972,"Ġknow":973,"Ġmem":974,"pe":975,"sv":976,"ency":977,"cted":978,"Ġmethods":979,"iqu":980,"Ġreview":981,"ane":982,"ions":983,"ld":984,"Ġdeter":985,"Ġfirst":986,"Ġnucle":987,"Ġindic":988,"Ġisol":989,"ard":990,"af":991,"round":992,"les":993,"Ġinfected":994,"arget":995,"one":996,"Ġend":997,"qui":998,"Ġinv":999,"action":1000,"ses":1001,"Ġamon":1002,"Ġamong":1003,"Ġmeas":1004,"Ġonly":1005,"Ġactivity":1006,"Ġobser":1007,"Ġsec":1008,"ks":1009,"Ġrepor":1010,"vestig":1011,"ities":1012,"Ġevalu":1013,"Ġrole":1014,"Ġepidemic":1015,"Ġconf":1016,"Ġinvestig":1017,"Ġthrough":1018,"Ġoc":1019,"mptom":1020,"ateg":1021,"Ġshowed":1022,"oph":1023,"Ġfunction":1024,"Ġcar":1025,"tics":1026,"Ġpositive":1027,"Ġpneum":1028,"Ġhig":1029,"Ġexper":1030,"Ġdemon":1031,"Ġtarget":1032,"Ġdemonstr":1033,"eng":1034,"ual":1035,"Ġ-":1036,"Ġsynd":1037,"Ġu":1038,"Ġmechanis":1039,"arge":1040,"Ġperform":1041,"Ġbased":1042,"Ġreplication":1043,"Ġmicro":1044,"Ġchildren":1045,"Ġhospital":1046,"pend":1047,"Ġindi":1048,"Ġaddition":1049,"Ġprocess":1050,"Ġcompared":1051,"Ġunder":1052,"Ġanim":1053,"Ġtest":1054,"Ġsequenc":1055,"Ġnovel":1056,"itis":1057,"Ġtransmission":1058,"rel":1059,"Ġaut":1060,"Ġ201":1061,"Ġcould":1062,"ters":1063,"Ġpredic":1064,"Ġcap":1065,"cri":1066,"infec":1067,"ange":1068,"tit":1069,"ov":1070,"Ġinte":1071,"omes":1072,"led":1073,"Ġinform":1074,"Ġfe":1075,"ature":1076,"Ġinhibit":1077,"me":1078,"Ġresear":1079,"spec":1080,"Ġloc":1081,"Ġcoll":1082,"Ġav":1083,"Ġacid":1084,"Ġam":1085,"ments":1086,"Ġcommon":1087,"clusion":1088,"Ġform":1089,"Ġsel":1090,"ness":1091,"omic":1092,"Ġpublic":1093,"con":1094,"Ġsyndrome":1095,"lob":1096,"Ġ200":1097,"Ġcr":1098,"Ġpand":1099,"Ġdetection":1100,"Ġye":1101,"Ġimp":1102,"Ġvaccine":1103,"ould":1104,"ces":1105,"Ġthree":1106,"ond":1107,"Ġfactors":1108,"Ġantiviral":1109,"ian":1110,"av":1111,"til":1112,"ough":1113,"Ġfoll":1114,"Ġcurrent":1115,"ma":1116,"arr":1117,"Ġunders":1118,"ability":1119,"Ġspread":1120,"hes":1121,"ize":1122,"Ġlung":1123,"Ġdrug":1124,"Ġfollow":1125,"Ġexam":1126,"Ġneu":1127,"Ġpandemic":1128,"cer":1129,"Ġtes":1130,"ater":1131,"arly":1132,"Ġcd":1133,"Ġcare":1134,"Ġrecom":1135,"crib":1136,"Ġwho":1137,"Ġwill":1138,"Ġincreased":1139,"onia":1140,"Ġrecept":1141,"tes":1142,"Ġneed":1143,"Ġbacter":1144,"jor":1145,"Ġstrateg":1146,"Ġdetected":1147,"iver":1148,"old":1149,"lamm":1150,"Ġspecies":1151,"ogens":1152,"Ġmajor":1153,"Ġins":1154,"Ġmain":1155,"Ġprob":1156,"ful":1157,"Ġwhen":1158,"Ġprim":1159,"ocy":1160,"Ġsignificantly":1161,"Ġtech":1162,"Ġrem":1163,"Ġtechn":1164,"Ġresearch":1165,"Ġwithin":1166,"ties":1167,"Ġyears":1168,"Ġeffective":1169,"wor":1170,"ob":1171,"Ġsome":1172,"ats":1173,"Ġhere":1174,"Ġindivid":1175,"Ġrate":1176,"inal":1177,"ina":1178,"Ġlevels":1179,"Ġint":1180,"hem":1181,"Ġmice":1182,"Ġmut":1183,"Ġsymptom":1184,"Ġrequi":1185,"Ġpneumonia":1186,"Ġdays":1187,"Ġwhile":1188,"ox":1189,"ily":1190,"ages":1191,"Ġcal":1192,"ined":1193,"ues":1194,"cop":1195,"Ġpathogens":1196,"Ġhigher":1197,"Ġmar":1198,"ectively":1199,"based":1200,"fore":1201,"ulated":1202,"Ġpopulation":1203,"Ġorg":1204,"olution":1205,"Ġimpro":1206,"Ġwork":1207,"Ġmany":1208,"ption":1209,"Ġeffect":1210,"Ġsens":1211,"Ġinformation":1212,"raph":1213,"par":1214,"Ġbec":1215,"tand":1216,"Ġsuggest":1217,"Ġmortal":1218,"ground":1219,"'s":1220,"vention":1221,"Ġage":1222,"ock":1223,"Ġdescrib":1224,"Ġassess":1225,"ackground":1226,"of":1227,"yn":1228,"tis":1229,"Ġdom":1230,"try":1231,"roph":1232,"Ġseveral":1233,"Ġcri":1234,"tern":1235,"%)":1236,"Ġreported":1237,"cus":1238,"Ġsus":1239,"Ġ19":1240,"Ġobserved":1241,"ins":1242,"Ġworld":1243,"Ġmortality":1244,"its":1245,"Ġinvol":1246,"Ġder":1247,"Ġposs":1248,"Ġtype":1249,"ex":1250,"ort":1251,"ound":1252,"Ġsimil":1253,"Ġgenes":1254,"Ġlim":1255,"ame":1256,"Ġdist":1257,"Ġmodels":1258,"Ġrap":1259,"ross":1260,"pr":1261,"Ġfinding":1262,"Ġprovide":1263,"Ġpers":1264,"Ġunderstand":1265,"Ġcomplex":1266,"Ġavail":1267,"Ġthey":1268,"ypes":1269,"Ġanaly":1270,"Ġmultiple":1271,"Ġrep":1272,"Ġdeveloped":1273,"Ġreve":1274,"Ġintr":1275,"ented":1276,"Ġill":1277,"Ġthose":1278,"Ġstrains":1279,"Ġlarge":1280,"Ġmolecular":1281,"Ġdo":1282,"Ġassay":1283,"vious":1284,"hen":1285,"Ġdesign":1286,"Ġglob":1287,"ric":1288,"Ġoccur":1289,"Ġeffects":1290,"ons":1291,"ix":1292,"Ġwhere":1293,"uce":1294,"Ġresponses":1295,"Ġrespectively":1296,"Ġmers":1297,"Ġsequence":1298,"Ġrapid":1299,"ind":1300,"Ġsm":1301,"Ġcase":1302,"Ġair":1303,"Ġhyp":1304,"rop":1305,"Ġec":1306,"brane":1307,"Ġeach":1308,"Ġlead":1309,"Ġestim":1310,"Ġlab":1311,"Ġet":1312,"rect":1313,"Ġnet":1314,"pcr":1315,"over":1316,"Ġcol":1317,"Ġactiv":1318,"12":1319,"ade":1320,"Ġgenome":1321,"Ġdel":1322,"Ġcommun":1323,"Ġsimilar":1324,"Ġdna":1325,"Ġsing":1326,"background":1327,"hel":1328,"Ġver":1329,"Ġcult":1330,"Ġclass":1331,"pendent":1332,"Ġchall":1333,"Ġevid":1334,"eu":1335,"ium":1336,"ived":1337,"requ":1338,"Ġsite":1339,"Ġacc":1340,"Ġext":1341,"Ġset":1342,"ograph":1343,"Ġpatient":1344,"Ġreveal":1345,"Ġfl":1346,"Ġidentify":1347,"Ġepit":1348,"Ġprevious":1349,"cv":1350,"Ġconfir":1351,"Ġgr":1352,"Ġantibodies":1353,"ically":1354,"Ġcomb":1355,"ale":1356,"verse":1357,"Ġearly":1358,"Ġfindings":1359,"Ġmin":1360,"ef":1361,"Ġchang":1362,"Ġdue":1363,"Ġcle":1364,"Ġexpl":1365,"tries":1366,"Ġtranscri":1367,"Ġavailable":1368,"osis":1369,"use":1370,"Ġbinding":1371,"ics":1372,"Ġsurve":1373,"Ġer":1374,"Ġdetermin":1375,"Ġval":1376,"ified":1377,"Ġreceptor":1378,"Ġsw":1379,"Ġaffec":1380,"inant":1381,"Ġlong":1382,"Ġexperim":1383,"iel":1384,"Ġnetwor":1385,"Ġchina":1386,"Ġgly":1387,"Ġconclusion":1388,"io":1389,"15":1390,"Ġcompar":1391,"tral":1392,"Ġ12":1393,"ae":1394,"Ġrecent":1395,"Ġdeath":1396,"Ġhighly":1397,"Ġinflamm":1398,"ey":1399,"Ġpol":1400,"oti":1401,"yd":1402,"ished":1403,"atal":1404,"vo":1405,"tero":1406,"Ġcellular":1407,"ise":1408,"tial":1409,"Ġrelated":1410,"Ġped":1411,"like":1412,"Ġifn":1413,"Ġil":1414,"ety":1415,"Ġabout":1416,"Ġtotal":1417,"Ġdef":1418,"Ġsingle":1419,"zy":1420,"Ġantibody":1421,"Ġfrequ":1422,"Ġstructure":1423,"Ġpost":1424,"ynam":1425,"ha":1426,"Ġhel":1427,"Ġvit":1428,"Ġknown":1429,"int":1430,"lood":1431,"13":1432,"Ġiniti":1433,"Ġpathw":1434,"Ġcountries":1435,"Ġter":1436,"emi":1437,"tained":1438,"vers":1439,"ning":1440,"ust":1441,"Ġsmall":1442,"Ġlike":1443,"onic":1444,"aining":1445,"acy":1446,"Ġapproach":1447,"Ġcause":1448,"Ġtherapeu":1449,"ection":1450,"Ġrecomb":1451,"Ġbas":1452,"Ġcyt":1453,"Ġperi":1454,"actions":1455,"Ġexpress":1456,"cy":1457,"reg":1458,"rna":1459,"Ġrele":1460,"gative":1461,"Ġgroups":1462,"Ġtiss":1463,"ving":1464,"Ġevidence":1465,"Ġdiscus":1466,"onal":1467,"Ġlower":1468,"Ġvaccines":1469,"tein":1470,"Ġaim":1471,"Ġsymptoms":1472,"Ġful":1473,"Ġoutc":1474,"Ġbl":1475,"ince":1476,"Ġshould":1477,"Ġglobal":1478,"sequ":1479,"Ġpat":1480,"Ġblood":1481,"Ġcontrib":1482,"Ġ15":1483,"Ġreal":1484,"Ġpepti":1485,"Ġdecre":1486,"tric":1487,"Ġextr":1488,"Ġregion":1489,"pati":1490,"lation":1491,"Ġepidemi":1492,"viron":1493,"Ġperformed":1494,"Ġconc":1495,"Ġfam":1496,"Ġpolym":1497,"Ġpig":1498,"specific":1499,"Ġadv":1500,"Ġest":1501,"Ġgrow":1502,"Ġanalyz":1503,"Ġgenetic":1504,"nas":1505,"11":1506,"ogn":1507,"Ġpcr":1508,"plications":1509,"Ġperiod":1510,"reen":1511,"Ġeffici":1512,"Ġfac":1513,"though":1514,"ults":1515,"Ġprog":1516,"Ġcaused":1517,"Ġpap":1518,"Ġdiagnosis":1519,"Ġalthough":1520,"ick":1521,"Ġparticular":1522,"Ġsequences":1523,"Ġrepres":1524,"ci":1525,"Ġantigen":1526,"Ġmembrane":1527,"esis":1528,"Ġsecond":1529,"Ġflu":1530,"related":1531,"Ġsynthe":1532,"16":1533,"ord":1534,"Ġla":1535,"Ġdiarr":1536,"Ġchanges":1537,"Ġsystems":1538,"sp":1539,"Ġvir":1540,"Ġvarious":1541,"Ġdynam":1542,"Ġfour":1543,"Ġhist":1544,"dependent":1545,"des":1546,"Ġlabor":1547,"abl":1548,"ii":1549,"Ġstrain":1550,"ification":1551,"Ġdemonstrated":1552,"Ġenviron":1553,"Ġmechanisms":1554,"Ġwithout":1555,"Ġdiscuss":1556,"Ġimpact":1557,"Ġunderstanding":1558,"Ġthus":1559,"Ġrevealed":1560,"medi":1561,"Ġtem":1562,"Ġtested":1563,"Ġstrategies":1564,"ulations":1565,"Ġreport":1566,"Ġquan":1567,"gl":1568,"ish":1569,"mit":1570,"14":1571,"Ġproduction":1572,"Ġpa":1573,"face":1574,"ocial":1575,"sars":1576,"own":1577,"ental":1578,"Ġpur":1579,"ty":1580,"Ġenzy":1581,"izing":1582,"xim":1583,"Ġ14":1584,"Ġsignal":1585,"ouse":1586,"95":1587,"ink":1588,"Ġsugges":1589,"Ġconfirmed":1590,"cle":1591,"ife":1592,"Ġ50":1593,"Ġpoly":1594,"Ġmac":1595,"Ġincrease":1596,"idence":1597,"mic":1598,"Ġcharacteris":1599,"Ġfoc":1600,"rolog":1601,"las":1602,"Ġcollected":1603,"arm":1604,"Ġintern":1605,"duce":1606,"Ġci":1607,"ator":1608,"Ġanimal":1609,"Ġmat":1610,"pv":1611,"ĠÃ":1612,"Ġorgan":1613,"Ġenh":1614,"Ġallow":1615,"Ġ13":1616,"Ġindividu":1617,"ured":1618,"Ġexpos":1619,"Ġdistrib":1620,"Ġmedical":1621,"onch":1622,"Ġpresence":1623,"18":1624,"ledge":1625,"Ġrt":1626,"000":1627,"Ġkey":1628,"ately":1629,"Ġshown":1630,"Ġur":1631,"ids":1632,"Ġplas":1633,"agement":1634,"Ġhumans":1635,"Ġsocial":1636,"Ġx":1637,"Ġgu":1638,"Ġcritical":1639,"ensive":1640,"Ġmeasures":1641,"lymph":1642,"Ġtherefore":1643,"Ġdirect":1644,"ique":1645,"Ġ\"":1646,"Ġanimals":1647,"Ġconcentr":1648,"asing":1649,"Ġher":1650,"Ġace":1651,"Ġillness":1652,"Ġphys":1653,"17":1654,"Ġfocus":1655,"vent":1656,"cover":1657,"Ġlocal":1658,"Ġ95":1659,"ield":1660,"Ġprof":1661,"ism":1662,"jec":1663,"Ġdomain":1664,"Ġvitro":1665,"Ġnegative":1666,"Ġpreval":1667,"Ġrecogn":1668,"Ġprac":1669,"Ġevolution":1670,"Ġscreen":1671,"Ġig":1672,"Ġmy":1673,"Ġ16":1674,"Ġbacterial":1675,"Ġproduc":1676,"Ġtherapeutic":1677,"Ġmuc":1678,"Ġfactor":1679,"Ġless":1680,"Ġindividuals":1681,"Ġamin":1682,"Ġneutral":1683,"ols":1684,"Ġbronch":1685,"uk":1686,"Ġequ":1687,"Ġenvironment":1688,"cepti":1689,"Ġmicrob":1690,"ceptib":1691,"ider":1692,"Ġlo":1693,"Ġany":1694,"Ġserum":1695,"Ġdiagnostic":1696,"Ġpossible":1697,"Ġ2019":1698,"reated":1699,"Ġso":1700,"ho":1701,"Ġtract":1702,"imens":1703,"Ġinteractions":1704,"Ġestabl":1705,"Ġknowledge":1706,"sis":1707,"erase":1708,"cell":1709,"itivity":1710,"osph":1711,"Ġtherapy":1712,"ised":1713,"Ġnas":1714,"Ġpor":1715,"induced":1716,"Ġmark":1717,"care":1718,"Ġreduced":1719,"Ġresid":1720,"Ġâ":1721,"Ġsupport":1722,"Ġlymph":1723,"Ġnec":1724,"Ġrange":1725,"ality":1726,"Ġ18":1727,"ake":1728,"ulmon":1729,"hv":1730,"Ġgo":1731,"Ġconduc":1732,"illance":1733,"Ġagents":1734,"Ġmanagement":1735,"hip":1736,"pa":1737,"Ġoutbreaks":1738,"Ġinvolved":1739,"Ġche":1740,"Ġline":1741,"Ġimprove":1742,"Ġret":1743,"ibv":1744,"Ġfut":1745,"Ġrh":1746,"Ġrates":1747,"ules":1748,"ores":1749,"Ġthen":1750,"ause":1751,"Ġinn":1752,"Ġbeing":1753,"Ġtesting":1754,"atures":1755,"gi":1756,"Ġregions":1757,"ĠÎ":1758,"Ġincluded":1759,"fication":1760,"Ġles":1761,"Ġprimary":1762,"Ġstrong":1763,"Ġobtained":1764,"ditions":1765,"tok":1766,"Ġ.":1767,"wide":1768,"iter":1769,"Ġed":1770,"infected":1771,"ense":1772,"Ġcir":1773,"ormal":1774,"Ġsurveillance":1775,"met":1776,"Ġnat":1777,"Ġfuture":1778,"Ġassays":1779,"Ġhiv":1780,"Ġdiarrhe":1781,"Ġconditions":1782,"Ġsusceptib":1783,"Ġfollowing":1784,"Ġgi":1785,"Ġtra":1786,"ced":1787,"Ġpaper":1788,"Ġchr":1789,"Ġcompound":1790,"Ġ30":1791,"cul":1792,"Ġsince":1793,"Ġinduced":1794,"Ġwee":1795,"sc":1796,"ither":1797,"Ġorig":1798,"Ġemerging":1799,"den":1800,"Ġregul":1801,"xt":1802,"other":1803,"Ġentr":1804,"com":1805,"ctions":1806,"Ġrelative":1807,"Ġmal":1808,"Ġmechanism":1809,"Ġve":1810,"Ġge":1811,"Ġlaboratory":1812,"Ġfusion":1813,"ights":1814,"Ġartic":1815,"Ġamino":1816,"Ġlikely":1817,"otic":1818,"Ġnetwork":1819,"cod":1820,"Ġtranscription":1821,"Ġstand":1822,"trans":1823,"Ġatten":1824,"ulmonary":1825,"Ġactivation":1826,"Ġevaluated":1827,"Ġsci":1828,"Ġinterfer":1829,"Ġsurvi":1830,"Ġmonth":1831,"line":1832,"Ġcytok":1833,"Ġdem":1834,"Ġrecombinant":1835,"icity":1836,"posed":1837,"Ġfamily":1838,"Ġdid":1839,"Ġcross":1840,"Ġconsider":1841,"inf":1842,"Ġbiological":1843,"Ġol":1844,"bor":1845,"Ġrequired":1846,"Ġsour":1847,"ained":1848,"uf":1849,"Ġhem":1850,"Ġ24":1851,"Ġstructural":1852,"Ġlos":1853,"Ġsame":1854,"Ġic":1855,"pose":1856,"ep":1857,"Ġste":1858,"Ġpreviously":1859,"Ġentry":1860,"Ġcontin":1861,"Ġincreasing":1862,"Ġ11":1863,"more":1864,"bid":1865,"Ġinj":1866,"Ġresist":1867,"Ġmedic":1868,"atis":1869,"ially":1870,"Ġbecause":1871,"uted":1872,"Ġess":1873,"Ġmo":1874,"Ġbro":1875,"Ġsurface":1876,"Ġdrugs":1877,"Ġfull":1878,"time":1879,"ax":1880,"mine":1881,"Ġhr":1882,"Ġorder":1883,"Ġproper":1884,"cent":1885,"aps":1886,"type":1887,"Ġgrowth":1888,"Ġculture":1889,"Ġfever":1890,"ople":1891,"vic":1892,"eline":1893,"Ġbel":1894,"Ġrecently":1895,"Ġda":1896,"Ġox":1897,"bers":1898,"Ġpri":1899,"art":1900,"acts":1901,"Ġlife":1902,"ising":1903,"Ġmean":1904,"Ġgeneral":1905,"Ġfram":1906,"Ġcommunity":1907,"Ġresult":1908,"Ġpedv":1909,"Ġinvestigated":1910,"Ġimmunity":1911,"Ġsum":1912,"Ġparame":1913,"Ġeb":1914,"Ġchalleng":1915,"Ġele":1916,"Ġrepresent":1917,"Ġrsv":1918,"Ġvaccination":1919,"Ġoptim":1920,"Ġrepro":1921,"25":1922,"Ġdetermine":1923,"Ġcharacteristics":1924,"Ġbeha":1925,"29":1926,"Ġvia":1927,"tered":1928,"ards":1929,"Ġadap":1930,"Ġlimited":1931,"Ġ17":1932,"Ġinteraction":1933,"Ġthem":1934,"Ġanalyzed":1935,"Ġmedi":1936,"Ġday":1937,"ogene":1938,"cine":1939,"tration":1940,"Ġprevent":1941,"plement":1942,"minis":1943,"Ġsensitivity":1944,"Ġadd":1945,"Ġpeople":1946,"ope":1947,"Ġsuccess":1948,"Ġproble":1949,"Ġexpressed":1950,"Ġpathogenesis":1951,"abs":1952,"set":1953,"Ġdifferences":1954,"cs":1955,"Ġcoronaviruses":1956,"press":1957,"for":1958,"ists":1959,"Ġfacil":1960,"adi":1961,"Ġreaction":1962,"Ġwide":1963,"Ġfurthermore":1964,"Ġchronic":1965,"Ġbehavi":1966,"inc":1967,"Ġsol":1968,"Ġ25":1969,"Ġfail":1970,"idered":1971,"Ġvis":1972,"Ġprevalence":1973,"mb":1974,"Ġsa":1975,"ene":1976,"Ġhom":1977,"ances":1978,"ai":1979,"Ġmight":1980,"Ġcontr":1981,"Ġconsidered":1982,"Ġactive":1983,"Ġgl":1984,"Ġrece":1985,"Ġventi":1986,"Ġdiarrhea":1987,"ier":1988,"Ġrelations":1989,"Ġtypes":1990,"Ġconducted":1991,"Ġpulmonary":1992,"Ġseverity":1993,"Ġwild":1994,"Ġdetermined":1995,"Ġfunctional":1996,"Ġtissue":1997,"Ġvery":1998,"Ġcontact":1999,"Ġcancer":2000,"Ġoverall":2001,"Ġwhether":2002,"Ã¤":2003,"rsv":2004,"helial":2005,"Ġisolated":2006,"Ġpolymerase":2007,"inated":2008,"Ġte":2009,"man":2010,"Ġessential":2011,"Ġoften":2012,"Ġvalu":2013,"Ġvivo":2014,"Ġeither":2015,"otype":2016,"Ġcat":2017,"Ġchain":2018,"viruses":2019,"Ġaccur":2020,"covery":2021,"Ġdetect":2022,"Ġcauses":2023,"Ġdie":2024,"Ġprovides":2025,"tle":2026,"Ġdynamics":2027,"Ġanalyses":2028,"Ġvect":2029,")-":2030,"Ġ100":2031,"fl":2032,"Ġprevention":2033,"Ġparticip":2034,"till":2035,"Ġplay":2036,"Ġinteres":2037,"ocytes":2038,"Ġfeatures":2039,"Ġwould":2040,"oid":2041,"onomic":2042,"Ġindividual":2043,"vant":2044,"Ġsl":2045,"och":2046,"Ġbetter":2047,"anced":2048,"aches":2049,"Ġspike":2050,"Ġlack":2051,"utions":2052,"hemical":2053,"Ġdescribed":2054,").":2055,"Ġincidence":2056,"Ġinflammatory":2057,"Ġtests":2058,"Ġconser":2059,"resp":2060,"Ġeffic":2061,"ok":2062,"Ġabs":2063,"vities":2064,"Ġfin":2065,"Ġutil":2066,"Ġhighl":2067,"az":2068,"ious":2069,"nal":2070,"Ġhelp":2071,"itor":2072,"ably":2073,"rotein":2074,"Ġadminis":2075,"Ġcompon":2076,"Ġacross":2077,"Ġsequencing":2078,"Ġsumm":2079,"Ġcalves":2080,"Ġibv":2081,"Ġexist":2082,"Ġpart":2083,"Ġability":2084,"Ġcomplete":2085,"Ġintegr":2086,"Ġdemonstrate":2087,"Ġstandard":2088,"Ġvs":2089,"tically":2090,"Ġinde":2091,"Ġworldwide":2092,"Ġconstr":2093,"Ġhealthcare":2094,"Ġdistribution":2095,"rob":2096,"associ":2097,"Ġpolic":2098,"lying":2099,"Ġphyl":2100,"omy":2101,"Ġmid":2102,"Ġclus":2103,"05":2104,"Ġstill":2105,"ides":2106,"Ġrelationship":2107,"activ":2108,"know":2109,"dr":2110,"Ġglycop":2111,"Ġtrial":2112,"verage":2113,"Ġaden":2114,"Ġidentification":2115,"eric":2116,"Ġpromo":2117,"Ġfunctions":2118,"mitted":2119,"vs":2120,"Ġtak":2121,"Ġapp":2122,"Ġcorrel":2123,"Ġconcer":2124,"Ġrhin":2125,"Ġphen":2126,"active":2127,"asc":2128,"associated":2129,"Ġimportance":2130,"Ġnatural":2131,"Ġcod":2132,"enge":2133,"Ġbat":2134,"Ġpathway":2135,"oplas":2136,"opath":2137,"ators":2138,"Ġapproaches":2139,"Ġii":2140,"ually":2141,"Ġmouse":2142,"Ġstrategy":2143,"Ġbefore":2144,"Ġasth":2145,"Ġmonths":2146,"Ġconclusions":2147,"30":2148,"ellular":2149,"coun":2150,"Ġrati":2151,"Ġoutcomes":2152,"Ġ2020":2153,"Ġques":2154,"Ġuseful":2155,"org":2156,"patitis":2157,"Ġresour":2158,"ml":2159,"Ġsch":2160,"Ġshort":2161,"Ġcurrently":2162,"Ġsco":2163,"Ġencod":2164,"Ġsignaling":2165,"Ġprotec":2166,"Ġstate":2167,"ibility":2168,"ength":2169,"Ġenzyme":2170,"Ġinnate":2171,"Ġstudied":2172,"mediated":2173,"Ġeven":2174,"ury":2175,"Ġmoreover":2176,"50":2177,"Ġread":2178,"tivities":2179,"Ġvalid":2180,"Ġremains":2181,"Ġfive":2182,"Ġbacteria":2183,"Ġexposure":2184,"enter":2185,"ences":2186,"Ġsites":2187,"Ġcompounds":2188,"rs":2189,"ark":2190,"ĠÂ":2191,"Ġcop":2192,"Ġprotection":2193,"oy":2194,"ner":2195,"Ġstructures":2196,"Ġprom":2197,"Ġrespons":2198,"andom":2199,"Ġauth":2200,"tosis":2201,"Ġisolates":2202,"Ġevents":2203,"mend":2204,"Ġlimit":2205,"otide":2206,"Ġbroad":2207,"ference":2208,"Ġcharacterized":2209,"Ġlip":2210,"Ġmit":2211,"Ġ'":2212,"Ġevaluate":2213,"Ġgre":2214,"Ġespec":2215,"aging":2216,"Ġfew":2217,"Ġach":2218,"Ġphosph":2219,"Ġdescribe":2220,"Ġq":2221,"Ġefficacy":2222,"inary":2223,"plied":2224,"Ġbio":2225,"Ġinhibition":2226,"Ġcentr":2227,"Ġchallenge":2228,"ether":2229,"ling":2230,"Ġprior":2231,"Ġbre":2232,"Ġindicate":2233,"Ġgiven":2234,"ficient":2235,"Ġintro":2236,"Ġsetting":2237,"hyl":2238,"Ġinhibitors":2239,"ydro":2240,"Ġinterferon":2241,"pite":2242,"Ġactivities":2243,"Ġconsist":2244,"Ġproposed":2245,"Ġexhib":2246,"Ġzo":2247,"iat":2248,"eration":2249,"dle":2250,"ret":2251,"22":2252,"Ġstat":2253,"Ġspecimens":2254,"Ġnormal":2255,"Ġscreening":2256,"termin":2257,"Ġinvestigate":2258,"pri":2259,"Ġct":2260,"Ġclose":2261,"Ġdecreased":2262,"Ġpopulations":2263,"andid":2264,"Ġsubsequ":2265,"Ġnor":2266,"Ġsix":2267,"Ġseas":2268,"Ġparticles":2269,"Ġir":2270,"olar":2271,"Ġmass":2272,"Ġquantit":2273,"Ġtum":2274,"aryn":2275,"Ġassociation":2276,"vered":2277,"Ġthreat":2278,"Ġwhereas":2279,"Ġprot":2280,"Ġprocesses":2281,"Ġampl":2282,"results":2283,"Ġrandom":2284,"Ġporcine":2285,"Ġcandid":2286,"Ġhepatitis":2287,"001":2288,"mv":2289,"Ġprogr":2290,"Ġinclude":2291,"Ġae":2292,"Ġespecially":2293,"Ġhand":2294,"Ġstatis":2295,"Ġspecificity":2296,"istic":2297,"infection":2298,"Ġfollowed":2299,"Ġantibio":2300,"Ġliver":2301,"Ġtemper":2302,"Ġpresented":2303,"Ġepidemiological":2304,"Ġadj":2305,"Ġachie":2306,"Ġliter":2307,"Ġnan":2308,"Ġasthma":2309,"Ġarticle":2310,"Ġpeptide":2311,"Ġpredict":2312,"tt":2313,"Ġareas":2314,"Ġdown":2315,"jective":2316,"Ġfield":2317,"acellular":2318,"Ġdog":2319,"Ġreduce":2320,"Ġmamm":2321,"Ġpathways":2322,"Ġexperimental":2323,"ll":2324,"hr":2325,"Ġrib":2326,"23":2327,"Ġvers":2328,"ophag":2329,"Ġsize":2330,"play":2331,"erc":2332,"Ġcontribute":2333,"ule":2334,"Ġenter":2335,"clud":2336,"ision":2337,"bo":2338,"Ġquality":2339,"Ġmacroph":2340,"Ġparameters":2341,"terns":2342,"Ġsample":2343,"Ġindicated":2344,"40":2345,"ke":2346,"Ġisolation":2347,"Ġfil":2348,"Ġvol":2349,"Ġleast":2350,"Ġlink":2351,"Ġsero":2352,"Ġdivers":2353,"way":2354,"roscop":2355,"Ġ28":2356,"stinal":2357,"pective":2358,"Ġgenomic":2359,"Ġmade":2360,"Ġapplied":2361,"bs":2362,"Ġcats":2363,"ducing":2364,"fs":2365,"Ġperformance":2366,"rosis":2367,"Ġpatterns":2368,"po":2369,"iques":2370,"26":2371,"Ġvalue":2372,"idae":2373,"Ġplasma":2374,"plant":2375,"Ġsurvival":2376,"acer":2377,"conclusion":2378,"Ġfacilit":2379,"Ġinternational":2380,"ording":2381,"semb":2382,"abol":2383,"Ġrecommend":2384,"ger":2385,"entially":2386,"Ġsuggesting":2387,"Ġsynthesis":2388,"Ġresistance":2389,"Ġmg":2390,"Ġstress":2391,"Ġrequire":2392,"Ġopen":2393,"da":2394,"app":2395,"Ġhealthy":2396,"21":2397,"known":2398,"43":2399,"Ġparticularly":2400,"pir":2401,"Ġexperi":2402,"Ġ21":2403,"Ġproperties":2404,"Ġbur":2405,"amp":2406,"covered":2407,"Ġexamined":2408,"Ġchange":2409,"Ġdespite":2410,"Ġtargets":2411,"27":2412,"ored":2413,"Ġmutations":2414,"Ġprovided":2415,"ank":2416,"Ġaffected":2417,"Ġemergency":2418,"Ġneeded":2419,"Ġinitial":2420,"Ġstim":2421,"Ġpathogenic":2422,"Ġradi":2423,"Ġnsp":2424,"ologies":2425,"Ġleading":2426,"oviruses":2427,"Ġmrna":2428,"Ġtox":2429,"Ġcardi":2430,"bidity":2431,"Ġden":2432,"Ġadditional":2433,"Ġaddress":2434,"Ġtreated":2435,"ploy":2436,"omen":2437,"Ġmolecules":2438,"inct":2439,"Ġzoon":2440,"Ġtog":2441,"Ġiss":2442,"astro":2443,"Ġinflammation":2444,"Ġratio":2445,"Ġagent":2446,"ij":2447,"Ġaccess":2448,"Ġprol":2449,"fr":2450,"ectr":2451,"Ġfar":2452,"Ġpigs":2453,"Ġdeliver":2454,"ont":2455,"Ġrestric":2456,"Ġdifferenti":2457,"Ġliterature":2458,"24":2459,"Ġcentral":2460,"Ġdeaths":2461,"sy":2462,"Ġoutcome":2463,"Ġsuccessful":2464,"Ġformation":2465,"Ġeu":2466,"tail":2467,"vian":2468,"Ġenvelop":2469,"Ġunique":2470,"pression":2471,"Ġyo":2472,"Ġcapac":2473,"ulate":2474,"ographic":2475,"Ġtyp":2476,"ikv":2477,"Ġphase":2478,"Ġtogether":2479,"Ġhy":2480,"Ġatt":2481,"Ġprogress":2482,"jects":2483,"ann":2484,"Ġmeasure":2485,"Ġhyper":2486,"fusion":2487,"Ġphylogene":2488,"Ġfib":2489,"Ġrv":2490,"ologic":2491,"aneous":2492,"Ġdistinct":2493,"Ġmiddle":2494,"Ġ23":2495,"Ġact":2496,"Ġben":2497,"Ġaccording":2498,"ode":2499,"Ġmetabol":2500,"Ġ40":2501,"Ġvalues":2502,"han":2503,"Ġreduction":2504,"Ġrat":2505,"oronavirus":2506,"ody":2507,"Ġselected":2508,"Ġpoor":2509,"Ġreverse":2510,"Ġreplic":2511,"amin":2512,"Ġconserved":2513,"Ġcer":2514,"phal":2515,"Ġsout":2516,"Ġnecess":2517,"Ġwater":2518,"els":2519,"Ġeconomic":2520,"Ġprotective":2521,"ateri":2522,"ient":2523,"method":2524,"asis":2525,"ands":2526,"Ġimproved":2527,"Ġvirul":2528,"isa":2529,"Ġdiversity":2530,"Ġsear":2531,"Ġdose":2532,"rh":2533,"Ġapop":2534,"afety":2535,"Ġhypot":2536,"iatric":2537,"Ġgenomes":2538,"dv":2539,"Ġdys":2540,"Ġyear":2541,"ivers":2542,"avage":2543,"Ġcontrast":2544,"Ġweeks":2545,"rt":2546,"Ġdam":2547,"Ġsecondary":2548,"Ġestablished":2549,"Ġfailure":2550,"uble":2551,"Ġtool":2552,"Ġsal":2553,"Ġaltern":2554,"Ġ27":2555,"Ġgover":2556,"Ġrapidly":2557,"Ġconte":2558,"Ġable":2559,"Ġly":2560,"Ġadmission":2561,"Ġinterven":2562,"by":2563,"Ġgastro":2564,"positive":2565,"Ġbats":2566,"Ġtow":2567,"Ġcarri":2568,"Ã³":2569,"Ġinjury":2570,"be":2571,"Ġdeveloping":2572,"200":2573,"Ġdatab":2574,"Ġquantitative":2575,"Ġcombination":2576,"Ġmicrobi":2577,"ococ":2578,"Ġtravel":2579,"Ġpeak":2580,"Ġsource":2581,"Ġprep":2582,"Ġadults":2583,"Ġservic":2584,"Ġul":2585,"Ġfatal":2586,"28":2587,"Ġigg":2588,"Ġprotease":2589,"Ġcomparis":2590,"Ġpersist":2591,"Ġsubst":2592,"cher":2593,"Ġsimple":2594,"lor":2595,"viridae":2596,"uary":2597,"Ġacids":2598,"Ġhistory":2599,"Ġepithelial":2600,"cin":2601,"Ġeast":2602,"term":2603,"Ġpan":2604,"oma":2605,"Ġconsequ":2606,"not":2607,"immun":2608,"tives":2609,"acerb":2610,"Ġfree":2611,"omal":2612,"Ġpharm":2613,"Ġguid":2614,"Ġns":2615,"Ġresulting":2616,"Ġreceptors":2617,"Ġload":2618,"Ġcontrols":2619,"ocyte":2620,"Ġpublished":2621,"inflamm":2622,"Ġtex":2623,"Ġstates":2624,"Ġinterventions":2625,"Ġhcv":2626,"gev":2627,"Ġunknown":2628,"Ġresponsible":2629,"Ġtur":2630,"Ġsuggests":2631,"otypes":2632,"rence":2633,"Ġcontinu":2634,"arding":2635,"Ġclear":2636,"Ġmorbidity":2637,"Ġassessed":2638,"Ġtissues":2639,"Ġself":2640,"ography":2641,"Ġnetworks":2642,"Ġphylogenetic":2643,"Ġcontaining":2644,"inter":2645,"Ġ26":2646,"Ġkin":2647,"Ġexacerb":2648,"Ġobserv":2649,"urse":2650,"Ġsuf":2651,"Ġmonitor":2652,"ire":2653,"Ġhb":2654,"Ġestimated":2655,"Ġefficient":2656,"ork":2657,"Ġoccurred":2658,"Ġpress":2659,"Ġneutralizing":2660,"Ġavian":2661,"Ġgovern":2662,"Ġyet":2663,"Ġtargeting":2664,"Ġbal":2665,"Ġsensitive":2666,"lr":2667,"Ġminim":2668,"Ġemergence":2669,"Ġappropri":2670,"Ġrelevant":2671,"Ġyoung":2672,"Ġpass":2673,"ensity":2674,"Ġaff":2675,"ascular":2676,"Ġinoc":2677,"rope":2678,"ams":2679,"ify":2680,"Ġelectr":2681,"Ġglycoprotein":2682,"Ġsir":2683,"Ġtechniques":2684,"Ġblock":2685,"ets":2686,"Ġhep":2687,"aff":2688,"odes":2689,"ocom":2690,"Ġsyncy":2691,"Ġupon":2692,"Ġbir":2693,"Ġnow":2694,"Ġaccoun":2695,"Ġquanti":2696,"Ġfec":2697,"Ġeti":2698,"Ġbu":2699,"Ġimplement":2700,"Ġdogs":2701,"Ġgreat":2702,"63":2703,"cd":2704,"Ġ29":2705,"Ġcapacity":2706,"itu":2707,"Ġapplications":2708,"Ġgenerated":2709,"Ġchallenges":2710,"Ġevaluation":2711,"Ġautophag":2712,"Ġpracti":2713,"Ġproced":2714,"Ġtechnology":2715,"Ġmhv":2716,"Ġapplication":2717,"unction":2718,"trum":2719,"Ġresulted":2720,"Ġventilation":2721,"Ġorf":2722,"ss":2723,"Ġlear":2724,"Ġrol":2725,"mal":2726,"ice":2727,"Ġpeptides":2728,"Ġspati":2729,"geal":2730,"Ġhcov":2731,"abil":2732,"Ġproduced":2733,"Ġpotentially":2734,"Ġoper":2735,"Ġnational":2736,"ola":2737,"acted":2738,"Ġunderlying":2739,"aryngeal":2740,"ca":2741,"Ġdoc":2742,"Ġcontain":2743,"Ġintervention":2744,"Ġgreater":2745,"Ġdisplay":2746,"Ġdiffic":2747,"Ġorganis":2748,"Ġbov":2749,"Ġreser":2750,"Ġeng":2751,"Ġsusceptible":2752,"Ġonset":2753,"Ġenvironmental":2754,"Ã¼":2755,"Ġcycle":2756,"hum":2757,"Ġ22":2758,"Ġglyc":2759,"iting":2760,"Ġentero":2761,"Ġtemperature":2762,"Ġcomm":2763,"agen":2764,"Ġregarding":2765,"Ġnasal":2766,"cence":2767,"Ġasy":2768,"Ġalg":2769,"Ġdetail":2770,"anded":2771,"Ġstatus":2772,"Ġinfants":2773,"Ġmas":2774,"gene":2775,"Ġnucleotide":2776,"Ġsecre":2777,"Ġbecome":2778,"Ġcost":2779,"Ġprov":2780,"Ġmak":2781,"Ġchick":2782,"aw":2783,"binding":2784,"Ġlog":2785,"borne":2786,"rological":2787,"Ġorigin":2788,"99":2789,"Ġconcentrations":2790,"Ġassemb":2791,"Ġfinally":2792,"Ġsoci":2793,"onucle":2794,"izes":2795,"Ġconcentration":2796,"mented":2797,"Ġmild":2798,"Ġspecif":2799,"Ġeurope":2800,"35":2801,"Ġafric":2802,"ening":2803,"Î±":2804,"Ġtimes":2805,"Ġproblem":2806,"Ġtop":2807,"stract":2808,"Ġsuper":2809,"ancing":2810,"Ġderived":2811,"Ġdaily":2812,"pi":2813,"Ġresidues":2814,"Ġenhanced":2815,"Ġscienti":2816,"this":2817,"ubiqu":2818,"Ġsafety":2819,"seud":2820,"Ġtransplant":2821,":/":2822,"itation":2823,"Ġtext":2824,"che":2825,"hc":2826,"go":2827,"Ġmm":2828,"Ġparas":2829,"Ġsuggested":2830,"Ġemploy":2831,"Ġinduce":2832,"Ġcoh":2833,"Ġaverage":2834,"38":2835,"Ġmainly":2836,"ici":2837,"Ġexperiments":2838,"Ġlit":2839,"Ġpolicy":2840,"Ġcontext":2841,"Ġmateri":2842,"Ġcorresp":2843,"inese":2844,"ek":2845,"Ġolig":2846,"Ġtools":2847,"Ġfrag":2848,"Ġcytokines":2849,"put":2850,"rup":2851,"Ġcompos":2852,"terminal":2853,"Ġzoonotic":2854,"Ġmicroscop":2855,"34":2856,"Ġintensive":2857,"flu":2858,"Ġhc":2859,"lets":2860,"Ġsubjects":2861,"methods":2862,"36":2863,"Ġpropor":2864,"Ġrab":2865,"Ġpattern":2866,"anes":2867,"Ġmix":2868,"01":2869,"Ġpredicted":2870,"Ġapproxim":2871,"Ġdelivery":2872,"ogenic":2873,"Ġarea":2874,"Ġtransport":2875,"ior":2876,"ites":2877,"itional":2878,"Ġmeasured":2879,"Ġattenu":2880,"Ġcam":2881,"://":2882,"gs":2883,"Ġmoder":2884,"Ġepidemiology":2885,"Ġdiscussed":2886,"human":2887,"Ġrot":2888,"Ġnucleic":2889,"Ġdesigned":2890,"Ġmedicine":2891,"Ġframew":2892,"Ġhetero":2893,"Ġindus":2894,"Ġtaken":2895,"Ġappe":2896,"Ġcoli":2897,"Ġmacrophages":2898,"bl":2899,"Ġcomponents":2900,"gens":2901,"Î²":2902,"Ġchinese":2903,"Ġdiverse":2904,"alian":2905,"Ġbiom":2906,"hold":2907,"Ġsitu":2908,"Ġappropriate":2909,"ona":2910,"Ġcov":2911,"Ġdifference":2912,"Ġbody":2913,"Ġreports":2914,"ella":2915,"ensin":2916,"Ġwu":2917,"Ġfood":2918,"ubiquit":2919,"Ġce":2920,"Ġtrad":2921,"Ġbehavior":2922,"eness":2923,"Ġefficiency":2924,"Ġroles":2925,"anti":2926,"Ġfrequently":2927,"Ġapoptosis":2928,"Ġquestion":2929,"Ġ60":2930,"Ġselection":2931,"Ġsyncytial":2932,"Ġvector":2933,"down":2934,"Ġairway":2935,"Ġparticipants":2936,"opes":2937,"Ġbrain":2938,"Ġunivers":2939,"Ġpseud":2940,"Ġmedian":2941,"Ġflow":2942,"cont":2943,"Ġprepared":2944,"ring":2945,"Ġlength":2946,"inflammatory":2947,"Ġhospitals":2948,"Ġrhinovirus":2949,"gn":2950,"Ġinduction":2951,"Ġlast":2952,"Ġsigns":2953,"Ġestimate":2954,"ah":2955,"Ġdri":2956,"Ġconstruc":2957,"60":2958,"nf":2959,"Ġneuro":2960,"ev":2961,"mers":2962,"Ġloss":2963,"Ġsummar":2964,"hest":2965,"Ġvariety":2966,"emia":2967,"pp":2968,"encies":2969,"cephal":2970,"Ġmuch":2971,"Ġbest":2972,"ables":2973,"Ġcommunic":2974,"ĪĴ":2975,"Ġlig":2976,"Ġ35":2977,"robial":2978,"Ġpast":2979,"iving":2980,"Ġ2009":2981,"day":2982,"Ġadult":2983,"Ġinhibited":2984,"Ġtumor":2985,"Ġbasic":2986,"forts":2987,"Ġalternative":2988,"ygen":2989,"lex":2990,"ject":2991,"Ġinfluence":2992,"Ġdomains":2993,"Ġregulation":2994,"Ġpoint":2995,"Ġremo":2996,"Ġinhibitor":2997,"Ġswine":2998,"ru":2999,"Ġprospec":3000,"ibr":3001,"Ġhighest":3002,"Ġenzym":3003,"80":3004,"ficiency":3005,"Ġassessment":3006,"Ġtrials":3007,"ophil":3008,"part":3009,"Ġbar":3010,"Ġsystematic":3011,"Ġfrequency":3012,"Ġaimed":3013,"Ġdiscovery":3014,"Ġwhole":3015,"mptomatic":3016,"Ġgood":3017,"vement":3018,"Ġefforts":3019,"Ġmedia":3020,"37":3021,"ache":3022,"Ġsk":3023,"ero":3024,"ower":3025,"Ġreceived":3026,"Ġplace":3027,"Ġduration":3028,"Ġbasis":3029,"Ġantigens":3030,"Ġplat":3031,"engue":3032,"Ġcombined":3033,"Ġhrv":3034,"orith":3035,"Ġestablish":3036,"Ġlate":3037,"air":3038,"Ġnature":3039,"Ġhospitalized":3040,"ades":3041,"bd":3042,"Ġfem":3043,"Ġfig":3044,"Ġcomparison":3045,"Ġalgorith":3046,"Ġseries":3047,"ours":3048,"Ġremain":3049,"Ġaffect":3050,"Ġcorrelation":3051,"Ġ)":3052,"Ġcourse":3053,"Ġcruc":3054,"Ġauthor":3055,"Ġspecifically":3056,"Ġfeline":3057,"Ġbovine":3058,"la":3059,"Ġbenef":3060,"fold":3061,"row":3062,"Ġpropose":3063,"otensin":3064,"Ġamo":3065,"Ġaround":3066,"Ġneut":3067,"mok":3068,"Ġti":3069,"Ġswabs":3070,"Ġcytokine":3071,"Ġframework":3072,"Ġcycl":3073,"Ġhosts":3074,"Ġproducts":3075,"Ġadenovirus":3076,"protein":3077,"Ġextensive":3078,"Ġhypothes":3079,"Ġmill":3080,"duces":3081,"Ġterms":3082,"Ġsusceptibility":3083,"ones":3084,"oly":3085,"Ġleuk":3086,"pes":3087,"mem":3088,"que":3089,"utes":3090,"Ġlic":3091,"Ġaspec":3092,"Ġvan":3093,"Ġmembers":3094,"osomal":3095,"ported":3096,"ventional":3097,"ume":3098,"Ġepidemics":3099,"Ġsubun":3100,"Ġinstit":3101,"Ġshed":3102,"pts":3103,"ficial":3104,"Ġtransfer":3105,"Ġtub":3106,"Ġbiology":3107,"Ġicu":3108,"Ġnasoph":3109,"Ġadministration":3110,"Ġcommonly":3111,"Ġtrig":3112,"Ġ37":3113,"Ġprotoc":3114,"90":3115,"Ġangi":3116,"Ġregression":3117,"Ġlarg":3118,"Ġdirectly":3119,"Ġpd":3120,"Ġrang":3121,"Ġseg":3122,"Ġtranslation":3123,"Ġplatform":3124,"rophil":3125,"conclusions":3126,"uring":3127,"Ġcalc":3128,"hal":3129,"quired":3130,"Ġrecognition":3131,"Ġabstract":3132,"Ġrelatively":3133,"Ġ48":3134,"Ġresources":3135,"roup":3136,"Ġcrucial":3137,"Ġlat":3138,"Ġepitopes":3139,"Ġexisting":3140,"Ġvariation":3141,"Ġdoes":3142,"Ġlines":3143,"Ġnecessary":3144,"Ġou":3145,"Ġstage":3146,"Ġebola":3147,"microbial":3148,"Ġprediction":3149,"ended":3150,"Ġretros":3151,"veolar":3152,"hens":3153,"ili":3154,"Ġdefined":3155,"rec":3156,"Ġcent":3157,"Ġtren":3158,"Ġcall":3159,"Ġdamage":3160,"Ġrelease":3161,"Ġreproduc":3162,"Ġstem":3163,"unt":3164,"Ġsubs":3165,"Ġchest":3166,"gf":3167,"Ġintracellular":3168,"dom":3169,"Ġreference":3170,"Ġproportion":3171,"Ġhm":3172,"Ġincor":3173,"Ġsurvey":3174,"Ġnur":3175,"tiveness":3176,"Ġindex":3177,"ict":3178,"Ġdegr":3179,"Ġunit":3180,"Ġfind":3181,"Ġworkers":3182,"Ġdecrease":3183,"Ġevol":3184,"Ġpromising":3185,"Ġenhance":3186,"struct":3187,"Ġifit":3188,"orescence":3189,"Ġabsence":3190,"do":3191,"np":3192,"Ġhydro":3193,"Ġcough":3194,"pected":3195,"argeted":3196,"Ġna":3197,"Ġmust":3198,"enced":3199,"Ġinactiv":3200,"Ġretrospective":3201,"Ġrecru":3202,"Ġcohort":3203,"imer":3204,"Ġsystemic":3205,"orph":3206,"Ġindicating":3207,"Ġthough":3208,"Ġcompre":3209,"Ġlesions":3210,"71":3211,"ool":3212,"Ġautophagy":3213,"Ġmaxim":3214,"Ġoxygen":3215,"cal":3216,"otox":3217,"Ġ31":3218,"Ġdengue":3219,"ocl":3220,"Ġencephal":3221,"Ġquar":3222,"Ġelisa":3223,"ints":3224,"Ġnm":3225,"Ġaction":3226,"idne":3227,"Ġrnas":3228,"Ġpediatric":3229,"Ġpressure":3230,"ude":3231,"Ġprrsv":3232,"Ġwuhan":3233,"Ġantimicrobial":3234,"ray":3235,"48":3236,"Ġalter":3237,"Ġlittle":3238,"otyp":3239,"Ġsubsequent":3240,"Ġseven":3241,"Ġsearch":3242,"ped":3243,"Ġeas":3244,"Ġimmunos":3245,"let":3246,"arily":3247,"Ġgran":3248,"Ġvp":3249,"Ġhtt":3250,"Ġcomput":3251,"Ġmoti":3252,"atives":3253,"ape":3254,"Ġ36":3255,"Ġwidely":3256,"Ġburden":3257,"Ġsepar":3258,"ream":3259,"Ġnumbers":3260,"Ġscore":3261,"enari":3262,"Ġspecial":3263,"Ġevent":3264,"Ġtrop":3265,"Ġdepend":3266,"Ġamplification":3267,"41":3268,"Ġasymptomatic":3269,"Ġcomprehens":3270,"wh":3271,"Ġcomplications":3272,"Ġkidne":3273,"Ġpotent":3274,"Ġincorpor":3275,"33":3276,"70":3277,"ĠÃł":3278,"Ġmucos":3279,"mod":3280,"ris":3281,"Ġcirc":3282,"Ġcertain":3283,"Ġsil":3284,"Ġconventional":3285,"Ġdatas":3286,"Ġprospective":3287,"Ġweight":3288,"Ġpractice":3289,"Ġdocum":3290,"Ġrotavirus":3291,"Ġgp":3292,"Ġlater":3293,"Ġplant":3294,"pd":3295,"Ġplan":3296,"Ġtraining":3297,"Ġcorrelated":3298,"most":3299,"Ġindependent":3300,"Ġmutation":3301,"Ġinterval":3302,"ylation":3303,"ancy":3304,"98":3305,"Ġattention":3306,"eding":3307,"Ġmonitoring":3308,"Ġled":3309,"tw":3310,"Ġspreading":3311,"Ġcleavage":3312,"less":3313,"Ġrob":3314,"fig":3315,"oh":3316,"pre":3317,"Ġorganization":3318,"Ġpsy":3319,"ird":3320,"Ġweek":3321,"45":3322,"Ġplays":3323,"Ġdon":3324,"Ġra":3325,"Ġmultiplex":3326,"Ġhome":3327,"rolled":3328,"Ġscenari":3329,"Ġcomprehensive":3330,"year":3331,"Ġintestinal":3332,"Ġaccum":3333,"Ġtransl":3334,"Ġelect":3335,"Ġelev":3336,"Ġcluster":3337,"Ġenvelope":3338,"Ġcolon":3339,"Ġkore":3340,"Ġpiglets":3341,"Ġpharmac":3342,"estern":3343,"Ġpneumoniae":3344,"covid":3345,"Ġeen":3346,"Ġcausing":3347,"Ġnasopharyngeal":3348,"fv":3349,"Ġcountry":3350,"Ġinvestigation":3351,"Ã¶":3352,"Ġbo":3353,"Ġneon":3354,"avi":3355,"function":3356,"gent":3357,"Ġframes":3358,"onding":3359,"Ġserious":3360,"Ġcondition":3361,"Ġdeg":3362,"Ġmajority":3363,"ze":3364,"Ġpsych":3365,"Ġalong":3366,"Ġobjective":3367,"hood":3368,"Ġlive":3369,"Ġpercent":3370,"Ġcriter":3371,"Ġinterest":3372,"Ġperce":3373,"taining":3374,"Â·":3375,"ipher":3376,"Ġcultures":3377,"Ġphysi":3378,"Ġsouth":3379,"ples":3380,"Ġcytoplas":3381,"Ġtgev":3382,"Ġfund":3383,"Ġ45":3384,"100":3385,"Ġdate":3386,"Ġein":3387,"Ġapproximately":3388,"Ġupper":3389,"68":3390,"Ġfit":3391,"Ġeth":3392,"Ġreli":3393,"aly":3394,"Ġards":3395,"Ġvariants":3396,"Ġmarch":3397,"Ġfore":3398,"ulin":3399,"Ġspatial":3400,"Ġ2015":3401,"regulated":3402,"Ġmammalian":3403,"ncov":3404,"Ġshows":3405,"Ġaus":3406,"Ġprofil":3407,"Ġcircul":3408,"Ġprop":3409,"Ġscientific":3410,"ochemical":3411,"Ġmanif":3412,"Ġnewly":3413,"ension":3414,"Ġauto":3415,"Ġcatal":3416,"Ġfluid":3417,"Ġneutrophil":3418,"Ġexample":3419,"Ġdifficult":3420,"ining":3421,"Ġeffectiveness":3422,"Ġprogression":3423,"Ġchrom":3424,"Ġoral":3425,"Ġms":3426,"Ġchem":3427,"aces":3428,"ional":3429,"Ġ38":3430,"Ġmob":3431,"igr":3432,"ry":3433,"Ġnext":3434,"Ġrespond":3435,"Ġmeans":3436,"Ġ%":3437,"Ġadop":3438,"Ġtranscript":3439,"Ġprolif":3440,"Ġubiquit":3441,"Ġstable":3442,"Ġseen":3443,"Ġfacilitate":3444,"Ġdatabase":3445,"Ġcommerc":3446,"ta":3447,"Ġconform":3448,"orders":3449,"Ġadmitted":3450,"dis":3451,"Ġconstit":3452,"Ġ90":3453,"Ġregulatory":3454,"Ġdegrad":3455,"Ġmake":3456,"ubation":3457,"Ġgeneration":3458,"oclonal":3459,"Ġrepe":3460,"Ġcas":3461,"Ġcomplement":3462,"Ġ80":3463,"Ġmicroscopy":3464,"ÃŃ":3465,"Ġproviding":3466,"Ġrobust":3467,"32":3468,"Ġwa":3469,"Ġrequires":3470,"Ġoptimal":3471,"inity":3472,"Ġadapt":3473,"Ġconsistent":3474,"Ġever":3475,"ifn":3476,"Ġpregn":3477,"Ġclos":3478,"Ġdiagnosed":3479,"Ġfrequent":3480,"Ġinfect":3481,"Ġjan":3482,"Ġrecognized":3483,"Ġcandidate":3484,"types":3485,"Ġmil":3486,"Ġsuppress":3487,"59":3488,"Ġeight":3489,"ergy":3490,"Ġcris":3491,"Ġtargeted":3492,"Ġold":3493,"plemented":3494,"31":3495,"Ġemerged":3496,"Ġast":3497,"thal":3498,"Ġrisks":3499,"bi":3500,"elines":3501,"Ġconn":3502,"Ġinteract":3503,"49":3504,"Ġchemical":3505,"Ġ2014":3506,"Ġconcern":3507,"Ġantibiotic":3508,"ws":3509,"print":3510,"Ġbios":3511,"Ġtraditional":3512,"ea":3513,"apsid":3514,"Ġalle":3515,"Ġscale":3516,"Ġevolutionary":3517,"yr":3518,"Ġmechan":3519,"membrane":3520,"group":3521,"Ġwestern":3522,"Ġperson":3523,"Ġlight":3524,"Ġseasonal":3525,"Ġissues":3526,"nt":3527,"erative":3528,"Ġbelong":3529,"77":3530,"Ġpower":3531,"Ġepitope":3532,"65":3533,"Ġtreatments":3534,"Ġmembr":3535,"jectives":3536,"Ġsources":3537,"Ġimplications":3538,"Ġbarri":3539,"ings":3540,"ĠâĢ":3541,"icians":3542,"Ġanother":3543,"Ġexpected":3544,"plicated":3545,"Ġnuclear":3546,"Ġmodified":3547,"Ġperipher":3548,"ift":3549,"Ġchap":3550,"ched":3551,"Ġcre":3552,"Ġsafe":3553,"Ġves":3554,"brid":3555,"uch":3556,"Ġexhibited":3557,"Ġsubstit":3558,"Ġneur":3559,"aged":3560,"Ġestimates":3561,"Ġaspects":3562,"Ġherpes":3563,"Ġalph":3564,"Ġsubstr":3565,"Ġmonoclonal":3566,"Ġdynamic":3567,"Ġkidney":3568,"Ġpreven":3569,"Ġrecombination":3570,"Ġner":3571,"Ġcanine":3572,"Ġstability":3573,"Ġproblems":3574,"Ġlearning":3575,"Ġtiters":3576,"Ġmr":3577,"Ġstep":3578,"Ã³n":3579,"Ġ2003":3580,"Ġsettings":3581,"Ġcorresponding":3582,"Ġear":3583,"osome":3584,"voir":3585,"Ġaccuracy":3586,"Ġinsights":3587,"Ġhen":3588,"Ġgenotype":3589,"Ġdelay":3590,"Ġpractic":3591,"Ġlipid":3592,"struc":3593,"derived":3594,"portun":3595,"Ġeduc":3596,"Ġmediated":3597,"Ġmir":3598,"Ġfip":3599,"Ġaged":3600,"Ġintra":3601,"Ġstar":3602,"Ġservices":3603,"Ġway":3604,"Ġbuil":3605,"abe":3606,"Ġdecision":3607,"Ġadditionally":3608,"Ġquarant":3609,"Ġinvas":3610,"glut":3611,"Ġdouble":3612,"psis":3613,"Ġenteric":3614,"ra":3615,"Ġcharacterization":3616,"stream":3617,"Ġexamine":3618,"oral":3619,"Ġmur":3620,"Ġincreases":3621,"Ġexplore":3622,"Ġcriteria":3623,"Ġclosely":3624,"rote":3625,"inte":3626,"Ġmag":3627,"Ġdele":3628,"ococcus":3629,"Ġopportun":3630,"ĠÏ":3631,"Ġreas":3632,"imin":3633,"aring":3634,"Ġalone":3635,"encing":3636,"ste":3637,"Ġappear":3638,"ror":3639,"Ġfer":3640,"ital":3641,"yst":3642,"yel":3643,"Ġphysical":3644,"Ġreproduction":3645,"Ġcompare":3646,"Ġprocessing":3647,"Ġangiotensin":3648,"Ġmodeling":3649,"Ġinteresting":3650,"Ġput":3651,"itable":3652,"Ġepis":3653,"Ġgenerally":3654,"44":3655,"tag":3656,"isher":3657,"Ġmach":3658,"equ":3659,"Ġameric":3660,"Ġrecovery":3661,"oglob":3662,"Ġregard":3663,"Ġdistress":3664,"ales":3665,"fied":3666,"istry":3667,"ogenous":3668,"Ġimplementation":3669,"link":3670,"Ġunited":3671,"ĠâĢ«":3672,"Ġcateg":3673,"Ġdepart":3674,"Ġallows":3675,"Ġstatistical":3676,"Ġvirulence":3677,"Ġhal":3678,"Ġrout":3679,"Ġocc":3680,"Ġfa":3681,"Ġfully":3682,"Ġaccurate":3683,"ft":3684,"Ġforms":3685,"Ġrare":3686,"ucid":3687,"Ġwhat":3688,"itig":3689,"75":3690,"land":3691,"Ġvectors":3692,"Ġfecal":3693,"39":3694,"Ġdisorders":3695,"Ġbronchi":3696,"Ġtowards":3697,"Ġreservoir":3698,"ban":3699,"mid":3700,"Ġthroughout":3701,"Ġmale":3702,"Ġheterogene":3703,"aria":3704,"Ġbeg":3705,"Ġexperiment":3706,"Ġtechnologies":3707,"Ġyield":3708,"aster":3709,"Ġimaging":3710,"Ġrather":3711,"Ġcarried":3712,"Ġgovernment":3713,"Ġsera":3714,"Ġmus":3715,"Ġinhibitory":3716,"Ġconfirm":3717,"88":3718,"Ġrats":3719,"Ġcore":3720,"Ġprec":3721,"Ġvar":3722,"Ġ32":3723,"Ġeffectively":3724,"pan":3725,"utr":3726,"abor":3727,"Ġbronchitis":3728,"Ġolder":3729,"Ġpanel":3730,"Ġzikv":3731,"erous":3732,"ril":3733,"rocy":3734,"Ġcounter":3735,"free":3736,"Ġsepsis":3737,"phyl":3738,"Ġadvant":3739,"Ġelectron":3740,"Ġseem":3741,"poral":3742,"Ġ33":3743,"Ġothers":3744,"ĠÃ©":3745,"Ġ2012":3746,"ĠâĪĴ":3747,"Ġpurified":3748,"Ġperipheral":3749,"Ġhaving":3750,"Ġsubunit":3751,"oses":3752,"Ġtechnique":3753,"Ġexposed":3754,"Ġhmpv":3755,"oles":3756,"Ġindustry":3757,"Ġnucleoc":3758,"Ġcns":3759,"Ġrefl":3760,"Ġhis":3761,"cp":3762,"apping":3763,"ember":3764,"Ġ39":3765,"ubmed":3766,"Ġhospitalization":3767,"Ġlungs":3768,"Ġow":3769,"Ġchlor":3770,"Ġimmunization":3771,"no":3772,"ĠĠ":3773,"Ġhours":3774,"Ġproduce":3775,"Ġpolymorph":3776,"Ġguidelines":3777,"Ġafrica":3778,"Ġmutant":3779,"Ġtherapies":3780,"going":3781,"omestic":3782,"Ġstaff":3783,"Ġinfectivity":3784,"Ġwomen":3785,"Ġmitig":3786,"stranded":3787,"Ġattrib":3788,"Ġ2013":3789,"Ġhaem":3790,"ournal":3791,"hematic":3792,"Ġpurpose":3793,"Ġabund":3794,"Ġpredom":3795,"Ġmicrobial":3796,"zing":3797,"ulating":3798,"Ġview":3799,"Ġger":3800,"Ġreviewed":3801,"Ġpractices":3802,"ww":3803,"Ġnumerous":3804,"Ġnp":3805,"Ġpresentation":3806,"Ġinternal":3807,"Ġaeros":3808,"97":3809,"ients":3810,"Ġlibr":3811,"Ġdep":3812,"Ġfamil":3813,"isted":3814,"osomes":3815,"Ġstrongly":3816,"Ġvesic":3817,"Ġbind":3818,"Ġmembranes":3819,"activity":3820,"ysis":3821,"Ġroutine":3822,"bp":3823,"Ġmigr":3824,"Ġcapt":3825,"Ġadvances":3826,"Ġsex":3827,"Ġmanner":3828,"isation":3829,"Ġassembly":3830,"Ġattenuated":3831,"Ġreproductive":3832,"Ġhar":3833,"Ġmorph":3834,"Ġcontinuous":3835,"Ġaffinity":3836,"gal":3837,"Ġmanifest":3838,"fact":3839,"Ã©s":3840,"Ġmicroarr":3841,"Ġreducing":3842,"Ġ70":3843,"wa":3844,"Ġneeds":3845,"Ġ34":3846,"96":3847,"artic":3848,"Ġachieved":3849,"Ġheart":3850,"Ġdegree":3851,"Ġpic":3852,"Ġdependent":3853,"Ġdire":3854,"here":3855,"Ġdisrup":3856,"char":3857,"Ġenzymes":3858,"Ġmurine":3859,"fort":3860,"hm":3861,"Ġcos":3862,"Ġconfidence":3863,"mediate":3864,"Ġventil":3865,"Ġnucleocapsid":3866,"Ġprofess":3867,"Ġgenus":3868,"Ġcorona":3869,"Ġkinase":3870,"Ġmillion":3871,"hol":3872,"Ġbound":3873,"Ġallowed":3874,"57":3875,"Ġunderg":3876,"ck":3877,"ym":3878,"Ġexpressing":3879,"Ġprogram":3880,"Ġjanuary":3881,"ove":3882,"Ġmos":3883,"Ġveter":3884,"Ġdomestic":3885,"Ġhttps":3886,"Ġstages":3887,"Ġemph":3888,"Ġjap":3889,"Ġconcept":3890,"Ġpreprint":3891,"Ġelevated":3892,"tood":3893,"Ġsimult":3894,"Ġdistancing":3895,"Ġresource":3896,"Ġdegradation":3897,"Ġcontains":3898,"certain":3899,"Ġidentifying":3900,"ypt":3901,"Ġadaptive":3902,"Ġcomponent":3903,"Ġaccount":3904,"Ġproliferation":3905,"Ġelucid":3906,"Ġdecember":3907,"Ġsuspected":3908,"Ġantibiotics":3909,"46":3910,"Ġent":3911,"otherap":3912,"orrh":3913,"Ġhouse":3914,"Ġclinically":3915,"pet":3916,"Ġprobability":3917,"Ġsimultaneous":3918,"ls":3919,"md":3920,"Ġpubmed":3921,"Ġdig":3922,"Ġvon":3923,"enteritis":3924,"Ġcontacts":3925,"Ġuntil":3926,"Ġversus":3927,"Ġcirculating":3928,"Ġcontam":3929,"Ġsubstan":3930,"pepti":3931,"Ġtb":3932,"Ġrecord":3933,"Ġkn":3934,"iring":3935,"Ġcontrolled":3936,"Ġunderstood":3937,"Ġtermin":3938,"Ġanalyze":3939,"incip":3940,"Ġvolume":3941,"Ġcx":3942,"Ġens":3943,"Ġlinear":3944,"sign":3945,"Ġposition":3946,"Ġongoing":3947,"Ġenti":3948,"47":3949,"ku":3950,"Ã¡":3951,"Ġsynthes":3952,"Ġphosphory":3953,"Ġelic":3954,"Ġpersonal":3955,"Ġlys":3956,"immune":3957,"Ġmechanical":3958,"Ġml":3959,"Ġcaps":3960,"Ġsuccessfully":3961,"Ġprepar":3962,"Ġserve":3963,"Ġprophyl":3964,"Ġadverse":3965,"Ġmultiv":3966,"Ġhighlight":3967,"Ġcommunication":3968,"Ġabn":3969,"olitis":3970,"Ġleads":3971,"Ġgastroenteritis":3972,"ente":3973,"Ġdu":3974,"Ġmyel":3975,"mia":3976,"Ġimplemented":3977,"Ġcollection":3978,"zo":3979,"Ġface":3980,"Ġarter":3981,"Ġlock":3982,"Ġextre":3983,"Ġmetap":3984,"regulation":3985,"resist":3986,"prote":3987,"Ġvariable":3988,"Ġdensity":3989,"level":3990,"Ġassum":3991,"ert":3992,"Ġmolecule":3993,"Ġprognos":3994,"Ġorganisms":3995,"coronavirus":3996,"mi":3997,"Ġoccurs":3998,"Ġlargely":3999,"Ġextent":4000,"ĠÂ¼":4001,"Ġshedding":4002,"rin":4003,"Ġtlr":4004,"Ġfocused":4005,"Ġscience":4006,"Ġcys":4007,"Ġ2016":4008,"Ġexamination":4009,"Ġstre":4010,"lim":4011,"Ġexperience":4012,"Ġmucosal":4013,"Ġtransmiss":4014,"Ġdetec":4015,"Ġmathematic":4016,"Ġalveolar":4017,"Ġactivated":4018,"Ġquarantine":4019,"Ġuncle":4020,"Ġfamilies":4021,"Ġsubstantial":4022,"hyd":4023,"Ġlas":4024,"Ġconclud":4025,"Ġtherapeutics":4026,"Ġmoderate":4027,"Ġcodon":4028,"itions":4029,"Ġrev":4030,"Ġvary":4031,"Ġagg":4032,"cription":4033,"Ġlocated":4034,"kg":4035,"Ġeine":4036,"Ġcarb":4037,"bacter":4038,"Ġsolution":4039,"Ġspect":4040,"lic":4041,"Ġten":4042,"Ġdiabe":4043,"Ġcommercial":4044,"acoronavirus":4045,"Ġcity":4046,"Ġinfil":4047,"Ġframesh":4048,"pers":4049,"Ġgenotypes":4050,"Ġhybrid":4051,"clin":4052,"Ġcomputational":4053,"Ġconj":4054,"Ġsynthetic":4055,"Ġprocedures":4056,"Ġlonger":4057,"uv":4058,"Ġapril":4059,"Ġdefin":4060,"Ġpromote":4061,"Ġdifferential":4062,"oqu":4063,"aft":4064,"scale":4065,"Ġclassification":4066,"Ġrepresents":4067,"Ġcontent":4068,"Ġ2010":4069,"ondri":4070,"Ġrepl":4071,"Ġavoid":4072,"ercul":4073,"55":4074,"key":4075,"Ġtnf":4076,"Ġgenerate":4077,"Ġifitm":4078,"Ġbes":4079,"agglut":4080,"Ġsubsequently":4081,"Ġdetailed":4082,"linked":4083,"treated":4084,"Ġoff":4085,"through":4086,"Ġsurg":4087,"Ġunclear":4088,"nv":4089,"Ġhyd":4090,"Ġengine":4091,"Ġemployed":4092,"Ġthres":4093,"ories":4094,"Ġenrolled":4095,"Ġpoints":4096,"sh":4097,"upl":4098,"Ġalmost":4099,"Ġplants":4100,"Ġ42":4101,"Ġoriginal":4102,"ochondri":4103,"Ġevery":4104,"Ġplus":4105,"Ġvariables":4106,"Ġaccom":4107,"Ġscores":4108,"Ġlinked":4109,"Ġrecip":4110,"Ġfraction":4111,"Ġderiv":4112,"Ġparen":4113,"ulf":4114,"Ġnanop":4115,"Ġkorea":4116,"Ġfung":4117,"Ġimmunode":4118,"rology":4119,"Ġsuitable":4120,"Ġattem":4121,"Ġcapable":4122,"Ġultr":4123,"Ġhepat":4124,"bm":4125,"xiv":4126,"Î³":4127,"order":4128,"Ġunits":4129,"Ġdiarrho":4130,"Ġurban":4131,"Ġauthors":4132,"Ġalgorithm":4133,"Ġneonatal":4134,"Ġ65":4135,"Ġcataly":4136,"Ġasia":4137,"Ġhypert":4138,"Ġonline":4139,"Ġroom":4140,"Ġuniversity":4141,"Ġnine":4142,"Ġcount":4143,"Ġpair":4144,"Ġdevic":4145,"Ġdiscovered":4146,"Ġtransmembrane":4147,"Ġarg":4148,"Ġparticle":4149,"Ġsupplement":4150,"ustr":4151,"Ġbelie":4152,"Ġlay":4153,"Ġdied":4154,"Ġneutralization":4155,"au":4156,"organis":4157,"Ġhbov":4158,"structural":4159,"cc":4160,"Ġmedium":4161,"Ġquestionna":4162,"Ġpropag":4163,"ultry":4164,"Ġdenv":4165,"fy":4166,"hydro":4167,"Ġrecur":4168,"Ġexacerbations":4169,"Ġmaterial":4170,"Ġendot":4171,"Ġvalidated":4172,"inations":4173,"ending":4174,"Ġpolicies":4175,"pase":4176,"urity":4177,"Ġoccurrence":4178,"Ġmarked":4179,"Ġprotocol":4180,"Ġ/":4181,"Ġcompart":4182,"parent":4183,"Ġsubset":4184,"ferred":4185,"ĠÎ¼":4186,"Ġprimarily":4187,"host":4188,"Ġli":4189,"ques":4190,"Ġcytotox":4191,"Ġimprovement":4192,"Ġtransplantation":4193,"doi":4194,"Ġcalled":4195,"nit":4196,"Ġrenal":4197,"Ġsampling":4198,"Ġcomplexes":4199,"cre":4200,"ways":4201,"aci":4202,"Ġabove":4203,"ariate":4204,"Ġsimulation":4205,"Ġantigenic":4206,"Ġlicense":4207,"king":4208,"Ġstay":4209,"Ġendemic":4210,"Ġip":4211,"ata":4212,"une":4213,"Ġhomolog":4214,"Ġmitochondri":4215,"Ã¨":4216,"Ġpoultry":4217,"Ġgrowing":4218,"Ġetiology":4219,"66":4220,"ocal":4221,"chen":4222,"bry":4223,"otides":4224,"Ġencoding":4225,"Ġindirect":4226,"uration":4227,"Ġtm":4228,"Ġshe":4229,"Ġmen":4230,"open":4231,"Ġpla":4232,"Ġinvolving":4233,"ler":4234,"elling":4235,"Ġproteases":4236,"Ġrelationships":4237,"Ġusually":4238,"Ġann":4239,"Ġitaly":4240,"Ġsignificance":4241,"Ġfast":4242,"ico":4243,"ito":4244,"iav":4245,"Ġarticles":4246,"Ġcompr":4247,"Ġelements":4248,"Ġquestions":4249,"urally":4250,"Ġconsequences":4251,"Ġsufficient":4252,"oor":4253,"Ġsof":4254,"Ġ41":4255,"Ġmathematical":4256,"bal":4257,"Ġlethal":4258,"Ġpathology":4259,"bed":4260,"inform":4261,"Ġtraf":4262,"Ġuncertain":4263,"Ġequip":4264,"42":4265,"ply":4266,"Ġsimilarity":4267,"rich":4268,"Ġho":4269,"Ġcattle":4270,"Ġcandidates":4271,"Ġoverl":4272,"Ġautom":4273,"Ġparain":4274,"Ġabnormal":4275,"life":4276,"Ġrecommendations":4277,"Ġinduces":4278,"elf":4279,"Ġhighlights":4280,"Ġmaking":4281,"Ġdeep":4282,"Ġsimulations":4283,"usive":4284,"Ġlact":4285,"ports":4286,"ogenesis":4287,"Ġcausative":4288,"Ġindicates":4289,"Ġsymptomatic":4290,"Ġmalaria":4291,"Ġoxid":4292,"Ġknock":4293,"Ġanalog":4294,"Ġappears":4295,"Ġclusters":4296,"sin":4297,"Ġmap":4298,"Ġprovince":4299,"Ġeuropean":4300,"Ġside":4301,"Ġvul":4302,"emerg":4303,"Ġillustr":4304,"Ġvero":4305,"resistant":4306,"Ġred":4307,"Ġchicken":4308,"intestinal":4309,"rix":4310,"Ġempir":4311,"Ġchapter":4312,"ery":4313,"Ġbac":4314,"Ġrecovered":4315,"Ġalign":4316,"Ġsep":4317,"Ġvaccinated":4318,"reng":4319,"Ġpoli":4320,"Ġcf":4321,"erculosis":4322,"Ġaims":4323,"Ġproduct":4324,"Ġhypothesis":4325,"Â°":4326,"ows":4327,"Ġbaseline":4328,"Ġpredominant":4329,"Ġnanopartic":4330,"Ġantic":4331,"Ġhong":4332,"utum":4333,"Ġmarkers":4334,"Ġinoculated":4335,"Ġcrisis":4336,"Ġnerv":4337,"Ġcho":4338,"Ġpredictive":4339,"Ġhemat":4340,"Ġpreparedness":4341,"Ġthird":4342,"Ġhelic":4343,"Ġsirna":4344,"53":4345,"Ġ<":4346,"Ġparti":4347,"Ġque":4348,"Ġturn":4349,"Ġattr":4350,"Ġcharacterize":4351,"eds":4352,"igen":4353,"Ġenergy":4354,"Ġnear":4355,"Ġple":4356,"Ġkong":4357,"Ġincludes":4358,"utive":4359,"Ġjournal":4360,"Ġintroduced":4361,"Ġamount":4362,"Ġplos":4363,"oflu":4364,"Ġcalculated":4365,"64":4366,"ptions":4367,"Ġspace":4368,"Ġ47":4369,"patient":4370,"Ġvisual":4371,"Ġbiomark":4372,"Ġbronchiolitis":4373,"Ġnervous":4374,"ges":4375,"Ġprotect":4376,"Ġparainflu":4377,"Ġtas":4378,"ospor":4379,"Ġparv":4380,"Ġcopies":4381,"Ġsin":4382,"ylated":4383,"Ġlect":4384,"Ġstreng":4385,"Ġblot":4386,"Ġreporting":4387,"gery":4388,"bv":4389,"astic":4390,"Ġusage":4391,"Ġke":4392,"Ġdecl":4393,"Ġsurgical":4394,"cast":4395,"Ġbase":4396,"Ġcytome":4397,"Ġcc":4398,"leuk":4399,"acing":4400,"ready":4401,"Ġsteps":4402,"Ġglycos":4403,"Ġextreme":4404,"Ġweak":4405,"aced":4406,"Ġresistant":4407,"Ġattach":4408,"clinical":4409,"85":4410,"Ġ>":4411,"Ġnt":4412,"Ġcontrolling":4413,"Ġisolate":4414,"Ġefficiently":4415,"Ġbin":4416,"Ġhsv":4417,"Ġther":4418,"romb":4419,"Ġmixed":4420,"Ġcomor":4421,"Ġthereby":4422,"omics":4423,"Ġmaximum":4424,"Ġmotif":4425,"gly":4426,"atin":4427,"Ġconstructed":4428,"bov":4429,"ches":4430,"Ġsputum":4431,"Ġprofile":4432,"risk":4433,"Ġspp":4434,"genic":4435,"ĠÎ²":4436,"91":4437,"Ġachieve":4438,"Ġprofiles":4439,"Ġhalf":4440,"Ġalready":4441,"Ġtrache":4442,"Ġlymphocytes":4443,"Ġdemyel":4444,"Ġpreventive":4445,"67":4446,"Ġconsum":4447,"objective":4448,"hydr":4449,"Ø§":4450,"Ġembry":4451,"Ġinvolvement":4452,"Ġouts":4453,"Ġimmunodeficiency":4454,"ached":4455,"Ġparal":4456,"Ġarch":4457,"Ġiii":4458,"effec":4459,"Ġdefense":4460,"xy":4461,"Ġdisch":4462,"Ġanalysed":4463,"Ġreliable":4464,"length":4465,"Ġchemok":4466,"Ġpersistent":4467,"Ġtransmitted":4468,"Ġspectrum":4469,"Ġfatality":4470,"Ġrecorded":4471,"pret":4472,"quiring":4473,"Ġdiff":4474,"Ġremained":4475,"Ġincreasingly":4476,"pread":4477,"Ġpool":4478,"Ġinser":4479,"Ġbri":4480,"Ġdiabetes":4481,"Ġion":4482,"usted":4483,"Ġarab":4484,"Ġparainfluenza":4485,"Ġdivid":4486,"Ġvariant":4487,"Ġmember":4488,"Ġpossess":4489,"Ġaffecting":4490,"Ġchickens":4491,"Ġlarger":4492,"ward":4493,"Ġdepartment":4494,"tam":4495,"Ġimmunocom":4496,"Ġ43":4497,"negative":4498,"Ġapproved":4499,"Ġadministered":4500,"izations":4501,"Ġprincip":4502,"Ġvirulent":4503,"ifications":4504,"Ġimmunoglob":4505,"Ġthreshold":4506,"Ġrig":4507,"Ġresolution":4508,"Ġtransform":4509,"Ġclassified":4510,"Ġpoorly":4511,"Ġfragment":4512,"Ġundergo":4513,"ifting":4514,"umin":4515,"Ġpi":4516,"Ġchann":4517,"Ġ44":4518,"Ġaccumulation":4519,"roteins":4520,"agic":4521,"Ġspe":4522,"Ġstudents":4523,"fered":4524,"Ġelder":4525,"Ġpossibility":4526,"Ġpreventing":4527,"Ġbuilding":4528,"range":4529,"Ġpcv":4530,"Ġinst":4531,"ĠÎ±":4532,"chers":4533,"Ġepisodes":4534,"Ġveterinary":4535,"Ġpartial":4536,"ika":4537,"Ġcollabor":4538,"Ġpossib":4539,"Ġswab":4540,"Ġsummary":4541,"Ġsituation":4542,"Ġphysiological":4543,"Ġeducation":4544,"Ġdetecting":4545,"ungen":4546,"bruary":4547,"Ġ75":4548,"Ġloop":4549,"otherapy":4550,"Ġname":4551,"Ġconver":4552,"Ġsignals":4553,"Ġcritically":4554,"Ġvulner":4555,"Ġclim":4556,"ields":4557,"Ġscreened":4558,"Ġhighligh":4559,"Ġcomposition":4560,"94":4561,"vation":4562,"inin":4563,"Ġimmunological":4564,"92":4565,"Ġnf":4566,"Ġcompl":4567,"aviruses":4568,"62":4569,"Ġbone":4570,"omer":4571,"semin":4572,"drp":4573,"Ġreading":4574,"Ġputative":4575,"Ġentire":4576,"Ġpresents":4577,"Ġelse":4578,"Ġimportantly":4579,"Ġgastrointestinal":4580,"Ġencephalitis":4581,"mat":4582,"acet":4583,"ensus":4584,"Ġmatrix":4585,"Ġang":4586,"Ġnam":4587,"amy":4588,"oprotein":4589,"ichia":4590,"Ġtit":4591,"arb":4592,"Ġnever":4593,"nel":4594,"va":4595,"Ġren":4596,"undred":4597,"Ġpublisher":4598,"Ġmetapneum":4599,"Ġak":4600,"Ġextracted":4601,"path":4602,"Ġimmunoflu":4603,"tingu":4604,"Ġdysfunction":4605,"Ġscenarios":4606,"Ġcp":4607,"Ġds":4608,"Ġfarm":4609,"Ġcoupl":4610,"Ġquick":4611,"Ġdifferentiation":4612,"Ġdro":4613,"Ġexplored":4614,"Ġfarms":4615,"Ġapparent":4616,"Ġpathological":4617,"Ġod":4618,"Ġback":4619,"ching":4620,"Ġmutants":4621,"Ġlaborator":4622,"Ġpp":4623,"unc":4624,"phosph":4625,"Ġinsight":4626,"Ġsecretion":4627,"Ġcapsid":4628,"Ġelderly":4629,"Ġnodes":4630,"Ġavailability":4631,"Ġbreath":4632,"oring":4633,"Ġseason":4634,"Ġsynthesized":4635,"Ġfinal":4636,"Ġsurgery":4637,"Ġfeed":4638,"Ġref":4639,"Ġrights":4640,"Ġcannot":4641,"Ġplate":4642,"Ġprolong":4643,"Ġfav":4644,"Ġbackground":4645,"Ġdistingu":4646,"Ġbiochemical":4647,"Ġfemale":4648,"Ġtraffic":4649,"Ġhu":4650,"Ġtypical":4651,"Ġstrept":4652,"oquine":4653,"cm":4654,"Ġinterestingly":4655,"Ġoffer":4656,"truct":4657,"Ġtri":4658,"Ġidentity":4659,"Ġcurve":4660,"Ġprograms":4661,"kr":4662,"Ġcs":4663,"Ġeuk":4664,"ulatory":4665,"Ġdistributed":4666,"Ġcosts":4667,"Ġmetapneumovirus":4668,"ophys":4669,"Ġextracellular":4670,"Ġprevalent":4671,"Ġmetabolism":4672,"Ġtuberculosis":4673,"Ġearl":4674,"Ġmosqu":4675,"Ġincubation":4676,"Ġwhee":4677,"Ġresearchers":4678,"Ġconcerns":4679,"Ġbirds":4680,"Ġhence":4681,"Ġaerosol":4682,"Ġnit":4683,"osin":4684,"olic":4685,"ovascular":4686,"Ġeukary":4687,"78":4688,"Ġdissemin":4689,"Ġshowing":4690,"Ġaug":4691,"Ġcenter":4692,"orb":4693,"Ġprocedure":4694,"Ġexce":4695,"infections":4696,"Ġdescribes":4697,"Ġdiarrhoea":4698,"Ġimages":4699,"Ġuses":4700,"Ġcomparable":4701,"Ġregional":4702,"aries":4703,"Ġconst":4704,"etal":4705,"Ġinvestigations":4706,"Ġassociations":4707,"Ġillnesses":4708,"Ġinoculation":4709,"tb":4710,"acquired":4711,"Ġshock":4712,"Ġ2017":4713,"Ġflavi":4714,"Ġextraction":4715,"Ġlibrary":4716,"Ġbei":4717,"Ġcompletely":4718,"Ġclearance":4719,"Ġbirth":4720,"ole":4721,"Ġ72":4722,"Ġecon":4723,"Ġinitiation":4724,"Ġmaterials":4725,"ocks":4726,"Ġbenefit":4727,"Ġoccup":4728,"aa":4729,"acchar":4730,"severe":4731,"romised":4732,"Ġpathogenicity":4733,"imeric":4734,"udi":4735,"Ġcardiac":4736,"Ġmilk":4737,"sw":4738,"Ġcm":4739,"Ġ55":4740,"avir":4741,"Ġfal":4742,"Ġ46":4743,"Ġhemorrh":4744,"Ġhemagglut":4745,"bri":4746,"Ġtheory":4747,"Ġmel":4748,"Ġhundred":4749,"Ġcontag":4750,"Ġsequenced":4751,"Ġvirion":4752,"Ġlimitations":4753,"Ġmosquito":4754,"acting":4755,"Ġmodification":4756,"Ġrbd":4757,"Ġmicroorganis":4758,"Ġfebruary":4759,"ras":4760,"Ġtake":4761,"olding":4762,"olgi":4763,"Ġcoverage":4764,"Ġcommunities":4765,"Ġrecipients":4766,"Ġdiffer":4767,"Ġimmunosup":4768,"Ġcontained":4769,"itiz":4770,"Ġmemory":4771,"Ġgenetically":4772,"Ġschool":4773,"Ġcold":4774,"idespread":4775,"Ġendothelial":4776,"Â±":4777,"ash":4778,"vier":4779,"Ġselective":4780,"eling":4781,"Ġdecades":4782,"Ġconsidering":4783,"02":4784,"Ġwer":4785,"Ġrelev":4786,"Ġbarrier":4787,"Ġfaec":4788,"rxiv":4789,"Ġwidespread":4790,"ering":4791,"aning":4792,"Ġintegrated":4793,"Ġtrends":4794,"Ġplanning":4795,"Ġubiquitin":4796,"Ġequipment":4797,"Ġlaboratories":4798,"faces":4799,"Ġax":4800,"anal":4801,"Ġreviews":4802,"Ġanalytical":4803,"Ġrecommended":4804,"81":4805,"wan":4806,"Ġagree":4807,"Ġattachment":4808,"Ġrad":4809,"Ġ99":4810,"ged":4811,"Ġnos":4812,"Ġgas":4813,"Ġqual":4814,"Ġnurses":4815,"Ġelectro":4816,"ulum":4817,"imen":4818,"rest":4819,"Ġfigure":4820,"Ġdataset":4821,"Ġauf":4822,"Ġtheore":4823,"olid":4824,"tra":4825,"ogenicity":4826,"Ġwest":4827,"fected":4828,"03":4829,"09":4830,"Ġadequ":4831,"Ġmethyl":4832,"ocytosis":4833,"Ġfacilities":4834,"Ġskin":4835,"pur":4836,"Ġclon":4837,"aceu":4838,"position":4839,"Ġlocation":4840,"Ġlogistic":4841,"Ġaccept":4842,"Ġdiet":4843,"Ġcdna":4844,"axis":4845,"ocar":4846,"Ġdiagnostics":4847,"Ġtemporal":4848,"cherichia":4849,"hs":4850,"Ġdefec":4851,"Ġdiver":4852,"Ġissue":4853,"Ġtai":4854,"Ġos":4855,"Ġreactions":4856,"Ġvirions":4857,"72":4858,"dase":4859,"Ġbil":4860,"Ġpromoter":4861,"Ġobservations":4862,"Ġfragments":4863,"iness":4864,"Ġantag":4865,"Ġlockdown":4866,"ivir":4867,"Ġ56":4868,"Ġsubstrate":4869,"tl":4870,"Ġmd":4871,"ya":4872,"Ġdc":4873,"Ġexplo":4874,"Ġcardiovascular":4875,"Ġaspir":4876,"Ġmeta":4877,"Ġzu":4878,"Ġmanifestations":4879,"leukin":4880,"56":4881,"Ġvaluable":4882,"Ġattack":4883,"Ġservice":4884,"isions":4885,"amine":4886,"Ġorgans":4887,"Ġrs":4888,"86":4889,"Ġcum":4890,"ticos":4891,"Ġcomparative":4892,"Ġrecruit":4893,"pedv":4894,"Ġpack":4895,"Ġbor":4896,"Ġga":4897,"Ġserological":4898,"nose":4899,"Ġobjectives":4900,"off":4901,"Ġclassical":4902,"Ġparameter":4903,"Ġstatistically":4904,"Ġreason":4905,"Ġphosphorylation":4906,"ifi":4907,"Ġchallenging":4908,"Ġhab":4909,"Ġacquired":4910,"Ġkine":4911,"Ġcopd":4912,"Ġcen":4913,"enty":4914,"Ġranging":4915,"93":4916,"with":4917,"Ġescherichia":4918,"Ġze":4919,"aden":4920,"Ġdemand":4921,"Ġglycoproteins":4922,"Ġmicroarray":4923,"Ġfeas":4924,"Ġnecrosis":4925,"Ġvalidation":4926,"rocytes":4927,"section":4928,"Ġau":4929,"Ġtre":4930,"Ġorth":4931,"Ġhet":4932,"Ġextended":4933,"Ġepithel":4934,"Ġgeograph":4935,"Ġmrnas":4936,"Ġtax":4937,"Ġformed":4938,"Ġinfl":4939,"Ġairborne":4940,"ĠÂµ":4941,"Ġrandomized":4942,"Ġantagon":4943,"Ġgraph":4944,"Ġ96":4945,"Ġquestionnaire":4946,"Ġoverview":4947,"teen":4948,"Ġthromb":4949,"ulative":4950,"ochem":4951,"Ġpredictions":4952,"Ġcontributed":4953,"Ġfluorescence":4954,"Ġtrigger":4955,"Ġtrend":4956,"Îº":4957,"Ġcovs":4958,"idase":4959,"Ġpresenting":4960,"Ġlymphocyte":4961,"Ġdemographic":4962,"throughput":4963,"ired":4964,"Ġcrypt":4965,"Ġphenotype":4966,"Ġtoward":4967,"Ġenterovirus":4968,"Ġevolved":4969,"Ġpercentage":4970,"Ġaggreg":4971,"openia":4972,"rv":4973,"Ġrequiring":4974,"Ġglobally":4975,"Ġslow":4976,"Ġautoimmune":4977,"Ġdivided":4978,"Ġhla":4979,"Ġhygi":4980,"Ġrabb":4981,"Ġhor":4982,"ada":4983,"Ġarti":4984,"Ġcarry":4985,"Ġcultured":4986,"Ġown":4987,"ye":4988,"Ġlik":4989,"Ġexplain":4990,"Ġcharacteristic":4991,"Ġrelevance":4992,"ota":4993,"rometry":4994,"cript":4995,"Ġcontribution":4996,"Ġurgent":4997,"Ġâī":4998,"04":4999}