{"<s>":0,"<pad>":1,"</s>":2,"<unk>":3,"!":4,"\"":5,"#":6,"$":7,"%":8,"&":9,"'":10,"(":11,")":12,"*":13,"+":14,",":15,"-":16,".":17,"/":18,"0":19,"1":20,"2":21,"3":22,"4":23,"5":24,"6":25,"7":26,"8":27,"9":28,":":29,";":30,"<":31,"=":32,">":33,"?":34,"@":35,"A":36,"B":37,"C":38,"D":39,"E":40,"F":41,"G":42,"H":43,"I":44,"J":45,"K":46,"L":47,"M":48,"N":49,"O":50,"P":51,"Q":52,"R":53,"S":54,"T":55,"U":56,"V":57,"W":58,"X":59,"Y":60,"Z":61,"[":62,"\\":63,"]":64,"^":65,"_":66,"`":67,"a":68,"b":69,"c":70,"d":71,"e":72,"f":73,"g":74,"h":75,"i":76,"j":77,"k":78,"l":79,"m":80,"n":81,"o":82,"p":83,"q":84,"r":85,"s":86,"t":87,"u":88,"v":89,"w":90,"x":91,"y":92,"z":93,"{":94,"|":95,"}":96,"~":97,"¡":98,"¢":99,"£":100,"¤":101,"¥":102,"¦":103,"§":104,"¨":105,"©":106,"ª":107,"«":108,"¬":109,"®":110,"¯":111,"°":112,"±":113,"²":114,"³":115,"´":116,"µ":117,"¶":118,"·":119,"¸":120,"¹":121,"º":122,"»":123,"¼":124,"½":125,"¾":126,"¿":127,"À":128,"Á":129,"Â":130,"Ã":131,"Ä":132,"Å":133,"Æ":134,"Ç":135,"È":136,"É":137,"Ê":138,"Ë":139,"Ì":140,"Í":141,"Î":142,"Ï":143,"Ð":144,"Ñ":145,"Ò":146,"Ó":147,"Ô":148,"Õ":149,"Ö":150,"×":151,"Ø":152,"Ù":153,"Ú":154,"Û":155,"Ü":156,"Ý":157,"Þ":158,"ß":159,"à":160,"á":161,"â":162,"ã":163,"ä":164,"å":165,"æ":166,"ç":167,"è":168,"é":169,"ê":170,"ë":171,"ì":172,"í":173,"î":174,"ï":175,"ð":176,"ñ":177,"ò":178,"ó":179,"ô":180,"õ":181,"ö":182,"÷":183,"ø":184,"ù":185,"ú":186,"û":187,"ü":188,"ý":189,"þ":190,"ÿ":191,"Ā":192,"ā":193,"Ă":194,"ă":195,"Ą":196,"ą":197,"Ć":198,"ć":199,"Ĉ":200,"ĉ":201,"Ċ":202,"ċ":203,"Č":204,"č":205,"Ď":206,"ď":207,"Đ":208,"đ":209,"Ē":210,"ē":211,"Ĕ":212,"ĕ":213,"Ė":214,"ė":215,"Ę":216,"ę":217,"Ě":218,"ě":219,"Ĝ":220,"ĝ":221,"Ğ":222,"ğ":223,"Ġ":224,"ġ":225,"Ģ":226,"ģ":227,"Ĥ":228,"ĥ":229,"Ħ":230,"ħ":231,"Ĩ":232,"ĩ":233,"Ī":234,"ī":235,"Ĭ":236,"ĭ":237,"Į":238,"į":239,"İ":240,"ı":241,"Ĳ":242,"ĳ":243,"Ĵ":244,"ĵ":245,"Ķ":246,"ķ":247,"ĸ":248,"Ĺ":249,"ĺ":250,"Ļ":251,"ļ":252,"Ľ":253,"ľ":254,"Ŀ":255,"ŀ":256,"Ł":257,"ł":258,"Ń":259,"in":260,"Ġa":261,"Ġt":262,"re":263,"on":264,"ti":265,"he":266,"en":267,"Ġc":268,"Ġs":269,"Ġo":270,"te":271,"Ġthe":272,"Ġp":273,"Ġin":274,"al":275,"Ġan":276,"es":277,"or":278,"Ġw":279,"Ġof":280,"Ġd":281,"is":282,"ro":283,"er":284,"Ġm":285,"an":286,"tion":287,"Ġf":288,"Ġand":289,"ic":290,"ed":291,"it":292,"Ġb":293,"as":294,"Ġre":295,"ar":296,"ing":297,"us":298,"at":299,"ec":300,"Ġe":301,"vi":302,"Ġh":303,"Ġto":304,"ve":305,"ent":306,"le":307,"Ġn":308,"ation":309,"ate":310,"ac":311,"ly":312,"Ġth":313,"Ġ(":314,"om":315,"ul":316,"un":317,"os":318,"vir":319,"im":320,"ol":321,"Ġl":322,"ur":323,"el":324,"id":325,"Ġg":326,"Ġpro":327,"tr":328,"ter":329,"Ġwe":330,"ith":331,"Ġfor":332,"Ġwith":333,"ig":334,"ce":335,"il":336,"Ġr":337,"Ġcon":338,"Ġas":339,"Ġres":340,"fec":341,"Ġde":342,"virus":343,"uc":344,"et":345,"if":346,"ted":347,"od":348,"Ġis":349,"res":350,"tic":351,"ir":352,"ts":353,"um":354,"og":355,"Ġv":356,"am":357,"ow":358,"ated":359,"ut":360,"ity":361,"op":362,"Ġthat":363,"oc":364,"ot":365,"Ġon":366,"Ġ1":367,"ati":368,"Ġex":369,"Ġst":370,"ver":371,"ion":372,"ain":373,"Ġbe":374,"qu":375,"Ġ2":376,"ab":377,"Ġcom":378,"ell":379,"Ġdis":380,"Ġwere":381,"Ġal":382,"ud":383,"se":384,"Ġinfec":385,"Ġac":386,"Ġim":387,"ys":388,"ag":389,"ad":390,"Ġwas":391,"rom":392,"ap":393,"ment":394,"Ġby":395,"Ġvirus":396,"pl":397,"Ġch":398,"ib":399,"ase":400,"her":401,"Ġse":402,"ical":403,"Ġtr":404,"ine":405,"th":406,"ies":407,"Ġare":408,"Ġco":409,"red":410,"Ġor":411,"Ġhe":412,"tive":413,"ant":414,"ren":415,"Ġresp":416,"und":417,"em":418,"Ġus":419,"Ġsp":420,"Ġen":421,"Ġthis":422,"Ġfrom":423,"ers":424,"ents":425,"ess":426,"Ġcell":427,"ans":428,"vel":429,"Ġsu":430,"ay":431,"Ġgen":432,"co":433,"iz":434,"Ġprote":435,"ory":436,"Ġne":437,"Ġinfection":438,"vid":439,"por":440,"Ġwh":441,"Ġcomp":442,"ous":443,"enti":444,"and":445,"Ġad":446,"Ġinc":447,"igh":448,"Ġat":449,"Ġstud":450,"duc":451,"st":452,"viral":453,"ge":454,"ence":455,"ure":456,"ri":457,"ens":458,"Ġanti":459,"Ġdi":460,"ath":461,"Ġcl":462,"atory":463,"Ġinf":464,"olog":465,"ific":466,"ost":467,"Ġk":468,"Ġstr":469,"Ġsh":470,"Ġpati":471,"ign":472,"ch":473,"ress":474,"ore":475,"mun":476,"ations":477,"Ġha":478,"act":479,"Ġdise":480,"Ġass":481,"ial":482,"Ġprotein":483,"Ġ3":484,"na":485,"Ġexp":486,"yp":487,"ia":488,"up":489,"Ġef":490,"Ġtrans":491,"ars":492,"Ġpre":493,"mon":494,"ich":495,"Ġle":496,"Ġap":497,"ug":498,"Ġcont":499,"Ġinter":500,"00":501,"ther":502,"Ġmod":503,"Ġit":504,"tiv":505,"Ġpatients":506,"Ġhave":507,"est":508,"pro":509,"ases":510,"ary":511,"orm":512,"Ġviral":513,"di":514,"cov":515,"fe":516,"Ġun":517,"Ġpar":518,"Ġrec":519,"ph":520,"Ġthese":521,"ved":522,"Ġimmun":523,"Ġcor":524,"Ġper":525,"ak":526,"Ġcan":527,"tions":528,"ased":529,"Ġspec":530,"Ġresul":531,"ular":532,"lu":533,"Ġrespir":534,"Ġpath":535,"enc":536,"ome":537,"pt":538,"Ġwhich":539,"iti":540,"ding":541,"ip":542,"Ġca":543,"port":544,"ill":545,"Ġmet":546,"able":547,"ance":548,"Ġdif":549,"ub":550,"ally":551,"Ġcells":552,"rol":553,"ors":554,"Ġstudy":555,"Ġsy":556,"Ġrespiratory":557,"Ġanal":558,"Ġsign":559,"Ġdisease":560,"feren":561,"Ġhum":562,"Ġag":563,"we":564,"19":565,"to":566,"Ġhas":567,"velop":568,"ied":569,"ative":570,"tem":571,"Ġev":572,"age":573,"fic":574,"Ġpl":575,"Ġnot":576,"cr":577,"alth":578,"Ġep":579,"avirus":580,"ction":581,"Ġhigh":582,"Ġ4":583,"Ġreg":584,"ist":585,"Ġid":586,"plic":587,"Ġ5":588,"ates":589,"Ġno":590,"Ġab":591,"Ġhealth":592,"Ġbet":593,"Ġeffec":594,"Ġaf":595,"Ġmodel":596,"Ġdat":597,"Ġbeen":598,"all":599,"Ġall":600,"Ġ0":601,"Ġcons":602,"Ġdevelop":603,"Ġout":604,"Ġund":605,"de":606,"oci":607,"ari":608,"Ġshow":609,"Ġdifferen":610,"Ġ20":611,"ogen":612,"Ġ[":613,"iss":614,"Ġdes":615,"Ġy":616,"the":617,"ik":618,"ugh":619,"Ġrespon":620,"Ġsub":621,"Ġgro":622,"Ġidenti":623,"reat":624,"cl":625,"ple":626,"Ġdete":627,"ne":628,"Ġviruses":629,"ast":630,"acter":631,"Ġro":632,"ose":633,"so":634,"min":635,"Ġresults":636,"Ġpres":637,"acc":638,"Ġhuman":639,"ven":640,"Ġph":641,"hod":642,"emic":643,"Ġpos":644,"ting":645,"Ġsars":646,"ute":647,"Ġpr":648,"Ġob":649,"Ġclin":650,"ive":651,"Ġfo":652,"onavirus":653,"ystem":654,"Ġmic":655,"ide":656,"Ġem":657,"ays":658,"Ġpo":659,"ech":660,"Ġincl":661,"str":662,"Ġman":663,"ves":664,"Ġalso":665,"tim":666,"Ġvacc":667,"ween":668,"end":669,"ue":670,"Ġbetween":671,"ass":672,"rap":673,"Ġsystem":674,"Ġdata":675,"Ġwhe":676,"Ġusing":677,"oll":678,"pec":679,"Ġmore":680,"Ġsur":681,"ew":682,"Ġanalys":683,"Ġinclud":684,"Ġsam":685,"Ġbi":686,"Ġother":687,"Ġmed":688,"Ġme":689,"Ġsc":690,"Ġsuc":691,"ach":692,"Ġdur":693,"Ġsyn":694,"ct":695,"Ġmethod":696,"Ġincre":697,"ized":698,"ression":699,"Ġhow":700,"ros":701,"ility":702,"Ġtheir":703,"Ġclinical":704,"ong":705,"Ġqu":706,"Ġtw":707,"Ġinflu":708,"enz":709,"uld":710,"lo":711,"ms":712,"Ġrel":713,"Ġcoronavirus":714,"als":715,"Ġsignific":716,"Ġar":717,"ulation":718,"gen":719,"ite":720,"Ġidentif":721,"tivity":722,"Ġj":723,"erg":724,"Ġcaus":725,"ild":726,"Ġwor":727,"hib":728,"ds":729,"Ġmay":730,"ating":731,"Ġrna":732,"Ġ6":733,"Ġassoci":734,"Ġsequ":735,"uct":736,"enza":737,"ever":738,"ures":739,"form":740,"ological":741,"Ġour":742,"Ġsignificant":743,"cess":744,"usion":745,"Ġind":746,"Ġ9":747,"Ġused":748,"iv":749,"Ġcovid":750,"Ġgene":751,"ines":752,"out":753,"per":754,"ack":755,"tal":756,"yl":757,"Ġtwo":758,"Ġbut":759,"ology":760,"Ġpot":761,"Ġcontrol":762,"ree":763,"ber":764,"Ġthan":765,"ung":766,"Ġduring":767,"Ġi":768,"ential":769,"duced":770,"Ġthere":771,"inding":772,"ear":773,"Ġvari":774,"Ġepid":775,"Ġgroup":776,"oth":777,"Ġser":778,"ail":779,"itive":780,"Ġantib":781,"Ġmost":782,"med":783,"Ġnew":784,"Ġtreat":785,"ike":786,"Ġprovid":787,"Ġtim":788,"Ġnon":789,"Ġinfections":790,"Ġsim":791,"br":792,"ains":793,"miss":794,"Ġanalysis":795,"Ġimport":796,"nos":797,"Ġel":798,"Ġ7":799,"Ġnum":800,"Ġinfluenza":801,"Ġover":802,"ype":803,"Ġpe":804,"Ġsuch":805,"Ġits":806,"ization":807,"ight":808,"Ġboth":809,"Ġcy":810,"Ġappro":811,"Ġcases":812,"Ġfact":813,"ution":814,"Ġris":815,"Ġdec":816,"ared":817,"Ġvi":818,"Ġinhib":819,"vere":820,"Ġdifferent":821,"ang":822,"arg":823,"Ġone":824,"ubl":825,"Ġproteins":826,"now":827,"alu":828,"ect":829,"Ġlevel":830,"Ġuse":831,"our":832,"gg":833,"Ġmul":834,"Ġes":835,"ace":836,"Ġdiag":837,"ucle":838,"Ġtreatment":839,"ult":840,"Ġstruct":841,"Ġhos":842,"Ġz":843,"anis":844,"anc":845,"amm":846,"mission":847,"bre":848,"Ġfun":849,"Ġhowever":850,"Ġstudies":851,"Ġmon":852,"Ġassociated":853,"Ġafter":854,"Ġcomple":855,"atic":856,"Ġif":857,"20":858,"Ġpartic":859,"Ġdiagnos":860,"Ġrisk":861,"tain":862,"ten":863,"Ġsampl":864,"entr":865,"ective":866,"pit":867,"ser":868,"val":869,"duction":870,"view":871,"Ġlow":872,"der":873,"Ġinto":874,"ination":875,"ition":876,"plication":877,"pti":878,"Ġdr":879,"Ġhost":880,"Ġpubl":881,"tious":882,"Ġ8":883,"Ġhad":884,"Ġexpression":885,"Ġsugg":886,"Ġagain":887,"Ġacute":888,"fer":889,"Ġsevere":890,"Ġtime":891,"Ġantibod":892,"Ġagainst":893,"mo":894,"rent":895,"ile":896,"ps":897,"cept":898,"cur":899,"Ã©":900,"Ġmor":901,"ovirus":902,"Ġfur":903,"ie":904,"Ġdiseases":905,"olec":906,"hed":907,"break":908,"ently":909,"trib":910,"Ġpathogen":911,"Ġma":912,"Ġoutbreak":913,"Ġgener":914,"Ġinfectious":915,"tical":916,"Ġfurther":917,"Ġtherap":918,"Ġchar":919,"Ġfound":920,"ants":921,"Ġcoun":922,"Ġpred":923,"Ġincluding":924,"Ġwell":925,"rough":926,"Ġmulti":927,"Ġ10":928,"Ġhospit":929,"Ġcur":930,"are":931,"read":932,"Ġspecific":933,"ited":934,"ected":935,"dition":936,"neum":937,"Ġpop":938,"Ġsup":939,"Ġop":940,"Ġimportant":941,"ible":942,"Ġimmune":943,"Ġpotential":944,"Ġmech":945,"tig":946,"Ġnumber":947,"Ġemerg":948,"10":949,"Ġup":950,"gr":951,"Ġsamples":952,"ational":953,"Ġchild":954,"Ġfr":955,"Ġsever":956,"Ġbr":957,"Ġcharacter":958,"Ġresponse":959,"fici":960,"ns":961,"pos":962,"Ġpresent":963,"Ġmolec":964,"Ġdevelopment":965,"lym":966,"ural":967,"Ġidentified":968,"rome":969,"mpt":970,"Ġfir":971,"Ġknow":972,"Ġmem":973,"pe":974,"sv":975,"ency":976,"cted":977,"Ġmethods":978,"iqu":979,"Ġreview":980,"ane":981,"ions":982,"ld":983,"Ġdeter":984,"Ġfirst":985,"Ġnucle":986,"Ġindic":987,"Ġisol":988,"ard":989,"af":990,"round":991,"les":992,"Ġinfected":993,"arget":994,"one":995,"Ġend":996,"qui":997,"Ġinv":998,"action":999,"ses":1000,"Ġamon":1001,"Ġamong":1002,"Ġmeas":1003,"Ġonly":1004,"Ġactivity":1005,"Ġobser":1006,"Ġsec":1007,"ks":1008,"Ġrepor":1009,"vestig":1010,"ities":1011,"Ġevalu":1012,"Ġrole":1013,"Ġepidemic":1014,"Ġconf":1015,"Ġinvestig":1016,"Ġthrough":1017,"Ġoc":1018,"mptom":1019,"ateg":1020,"Ġshowed":1021,"oph":1022,"Ġfunction":1023,"Ġcar":1024,"tics":1025,"Ġpositive":1026,"Ġpneum":1027,"Ġhig":1028,"Ġexper":1029,"Ġdemon":1030,"Ġtarget":1031,"Ġdemonstr":1032,"eng":1033,"ual":1034,"Ġ-":1035,"Ġsynd":1036,"Ġu":1037,"Ġmechanis":1038,"arge":1039,"Ġperform":1040,"Ġbased":1041,"Ġreplication":1042,"Ġmicro":1043,"Ġchildren":1044,"Ġhospital":1045,"pend":1046,"Ġindi":1047,"Ġaddition":1048,"Ġprocess":1049,"Ġcompared":1050,"Ġunder":1051,"Ġanim":1052,"Ġtest":1053,"Ġsequenc":1054,"Ġnovel":1055,"itis":1056,"Ġtransmission":1057,"rel":1058,"Ġaut":1059,"Ġ201":1060,"Ġcould":1061,"ters":1062,"Ġpredic":1063,"Ġcap":1064,"cri":1065,"infec":1066,"ange":1067,"tit":1068,"ov":1069,"Ġinte":1070,"omes":1071,"led":1072,"Ġinform":1073,"Ġfe":1074,"ature":1075,"Ġinhibit":1076,"me":1077,"Ġresear":1078,"spec":1079,"Ġloc":1080,"Ġcoll":1081,"Ġav":1082,"Ġacid":1083,"Ġam":1084,"ments":1085,"Ġcommon":1086,"clusion":1087,"Ġform":1088,"Ġsel":1089,"ness":1090,"omic":1091,"Ġpublic":1092,"con":1093,"Ġsyndrome":1094,"lob":1095,"Ġ200":1096,"Ġcr":1097,"Ġpand":1098,"Ġdetection":1099,"Ġye":1100,"Ġimp":1101,"Ġvaccine":1102,"ould":1103,"ces":1104,"Ġthree":1105,"ond":1106,"Ġfactors":1107,"Ġantiviral":1108,"ian":1109,"av":1110,"til":1111,"ough":1112,"Ġfoll":1113,"Ġcurrent":1114,"ma":1115,"arr":1116,"Ġunders":1117,"ability":1118,"Ġspread":1119,"hes":1120,"ize":1121,"Ġlung":1122,"Ġdrug":1123,"Ġfollow":1124,"Ġexam":1125,"Ġneu":1126,"Ġpandemic":1127,"cer":1128,"Ġtes":1129,"ater":1130,"arly":1131,"Ġcd":1132,"Ġcare":1133,"Ġrecom":1134,"crib":1135,"Ġwho":1136,"Ġwill":1137,"Ġincreased":1138,"onia":1139,"Ġrecept":1140,"tes":1141,"Ġneed":1142,"Ġbacter":1143,"jor":1144,"Ġstrateg":1145,"Ġdetected":1146,"iver":1147,"old":1148,"lamm":1149,"Ġspecies":1150,"ogens":1151,"Ġmajor":1152,"Ġins":1153,"Ġmain":1154,"Ġprob":1155,"ful":1156,"Ġwhen":1157,"Ġprim":1158,"ocy":1159,"Ġsignificantly":1160,"Ġtech":1161,"Ġrem":1162,"Ġtechn":1163,"Ġresearch":1164,"Ġwithin":1165,"ties":1166,"Ġyears":1167,"Ġeffective":1168,"wor":1169,"ob":1170,"Ġsome":1171,"ats":1172,"Ġhere":1173,"Ġindivid":1174,"Ġrate":1175,"inal":1176,"ina":1177,"Ġlevels":1178,"Ġint":1179,"hem":1180,"Ġmice":1181,"Ġmut":1182,"Ġsymptom":1183,"Ġrequi":1184,"Ġpneumonia":1185,"Ġdays":1186,"Ġwhile":1187,"ox":1188,"ily":1189,"ages":1190,"Ġcal":1191,"ined":1192,"ues":1193,"cop":1194,"Ġpathogens":1195,"Ġhigher":1196,"Ġmar":1197,"ectively":1198,"based":1199,"fore":1200,"ulated":1201,"Ġpopulation":1202,"Ġorg":1203,"olution":1204,"Ġimpro":1205,"Ġwork":1206,"Ġmany":1207,"ption":1208,"Ġeffect":1209,"Ġsens":1210,"Ġinformation":1211,"raph":1212,"par":1213,"Ġbec":1214,"tand":1215,"Ġsuggest":1216,"Ġmortal":1217,"ground":1218,"'s":1219,"vention":1220,"Ġage":1221,"ock":1222,"Ġdescrib":1223,"Ġassess":1224,"ackground":1225,"of":1226,"yn":1227,"tis":1228,"Ġdom":1229,"try":1230,"roph":1231,"Ġseveral":1232,"Ġcri":1233,"tern":1234,"%)":1235,"Ġreported":1236,"cus":1237,"Ġsus":1238,"Ġ19":1239,"Ġobserved":1240,"ins":1241,"Ġworld":1242,"Ġmortality":1243,"its":1244,"Ġinvol":1245,"Ġder":1246,"Ġposs":1247,"Ġtype":1248,"ex":1249,"ort":1250,"ound":1251,"Ġsimil":1252,"Ġgenes":1253,"Ġlim":1254,"ame":1255,"Ġdist":1256,"Ġmodels":1257,"Ġrap":1258,"ross":1259,"pr":1260,"Ġfinding":1261,"Ġprovide":1262,"Ġpers":1263,"Ġunderstand":1264,"Ġcomplex":1265,"Ġavail":1266,"Ġthey":1267,"ypes":1268,"Ġanaly":1269,"Ġmultiple":1270,"Ġrep":1271,"Ġdeveloped":1272,"Ġreve":1273,"Ġintr":1274,"ented":1275,"Ġill":1276,"Ġthose":1277,"Ġstrains":1278,"Ġlarge":1279,"Ġmolecular":1280,"Ġdo":1281,"Ġassay":1282,"vious":1283,"hen":1284,"Ġdesign":1285,"Ġglob":1286,"ric":1287,"Ġoccur":1288,"Ġeffects":1289,"ons":1290,"ix":1291,"Ġwhere":1292,"uce":1293,"Ġresponses":1294,"Ġrespectively":1295,"Ġmers":1296,"Ġsequence":1297,"Ġrapid":1298,"ind":1299,"Ġsm":1300,"Ġcase":1301,"Ġair":1302,"Ġhyp":1303,"rop":1304,"Ġec":1305,"brane":1306,"Ġeach":1307,"Ġlead":1308,"Ġestim":1309,"Ġlab":1310,"Ġet":1311,"rect":1312,"Ġnet":1313,"pcr":1314,"over":1315,"Ġcol":1316,"Ġactiv":1317,"12":1318,"ade":1319,"Ġgenome":1320,"Ġdel":1321,"Ġcommun":1322,"Ġsimilar":1323,"Ġdna":1324,"Ġsing":1325,"background":1326,"hel":1327,"Ġver":1328,"Ġcult":1329,"Ġclass":1330,"pendent":1331,"Ġchall":1332,"Ġevid":1333,"eu":1334,"ium":1335,"ived":1336,"requ":1337,"Ġsite":1338,"Ġacc":1339,"Ġext":1340,"Ġset":1341,"ograph":1342,"Ġpatient":1343,"Ġreveal":1344,"Ġfl":1345,"Ġidentify":1346,"Ġepit":1347,"Ġprevious":1348,"cv":1349,"Ġconfir":1350,"Ġgr":1351,"Ġantibodies":1352,"ically":1353,"Ġcomb":1354,"ale":1355,"verse":1356,"Ġearly":1357,"Ġfindings":1358,"Ġmin":1359,"ef":1360,"Ġchang":1361,"Ġdue":1362,"Ġcle":1363,"Ġexpl":1364,"tries":1365,"Ġtranscri":1366,"Ġavailable":1367,"osis":1368,"use":1369,"Ġbinding":1370,"ics":1371,"Ġsurve":1372,"Ġer":1373,"Ġdetermin":1374,"Ġval":1375,"ified":1376,"Ġreceptor":1377,"Ġsw":1378,"Ġaffec":1379,"inant":1380,"Ġlong":1381,"Ġexperim":1382,"iel":1383,"Ġnetwor":1384,"Ġchina":1385,"Ġgly":1386,"Ġconclusion":1387,"io":1388,"15":1389,"Ġcompar":1390,"tral":1391,"Ġ12":1392,"ae":1393,"Ġrecent":1394,"Ġdeath":1395,"Ġhighly":1396,"Ġinflamm":1397,"ey":1398,"Ġpol":1399,"oti":1400,"yd":1401,"ished":1402,"atal":1403,"vo":1404,"tero":1405,"Ġcellular":1406,"ise":1407,"tial":1408,"Ġrelated":1409,"Ġped":1410,"like":1411,"Ġifn":1412,"Ġil":1413,"ety":1414,"Ġabout":1415,"Ġtotal":1416,"Ġdef":1417,"Ġsingle":1418,"zy":1419,"Ġantibody":1420,"Ġfrequ":1421,"Ġstructure":1422,"Ġpost":1423,"ynam":1424,"ha":1425,"Ġhel":1426,"Ġvit":1427,"Ġknown":1428,"int":1429,"lood":1430,"13":1431,"Ġiniti":1432,"Ġpathw":1433,"Ġcountries":1434,"Ġter":1435,"emi":1436,"tained":1437,"vers":1438,"ning":1439,"ust":1440,"Ġsmall":1441,"Ġlike":1442,"onic":1443,"aining":1444,"acy":1445,"Ġapproach":1446,"Ġcause":1447,"Ġtherapeu":1448,"ection":1449,"Ġrecomb":1450,"Ġbas":1451,"Ġcyt":1452,"Ġperi":1453,"actions":1454,"Ġexpress":1455,"cy":1456,"reg":1457,"rna":1458,"Ġrele":1459,"gative":1460,"Ġgroups":1461,"Ġtiss":1462,"ving":1463,"Ġevidence":1464,"Ġdiscus":1465,"onal":1466,"Ġlower":1467,"Ġvaccines":1468,"tein":1469,"Ġaim":1470,"Ġsymptoms":1471,"Ġful":1472,"Ġoutc":1473,"Ġbl":1474,"ince":1475,"Ġshould":1476,"Ġglobal":1477,"sequ":1478,"Ġpat":1479,"Ġblood":1480,"Ġcontrib":1481,"Ġ15":1482,"Ġreal":1483,"Ġpepti":1484,"Ġdecre":1485,"tric":1486,"Ġextr":1487,"Ġregion":1488,"pati":1489,"lation":1490,"Ġepidemi":1491,"viron":1492,"Ġperformed":1493,"Ġconc":1494,"Ġfam":1495,"Ġpolym":1496,"Ġpig":1497,"specific":1498,"Ġadv":1499,"Ġest":1500,"Ġgrow":1501,"Ġanalyz":1502,"Ġgenetic":1503,"nas":1504,"11":1505,"ogn":1506,"Ġpcr":1507,"plications":1508,"Ġperiod":1509,"reen":1510,"Ġeffici":1511,"Ġfac":1512,"though":1513,"ults":1514,"Ġprog":1515,"Ġcaused":1516,"Ġpap":1517,"Ġdiagnosis":1518,"Ġalthough":1519,"ick":1520,"Ġparticular":1521,"Ġsequences":1522,"Ġrepres":1523,"ci":1524,"Ġantigen":1525,"Ġmembrane":1526,"esis":1527,"Ġsecond":1528,"Ġflu":1529,"related":1530,"Ġsynthe":1531,"16":1532,"ord":1533,"Ġla":1534,"Ġdiarr":1535,"Ġchanges":1536,"Ġsystems":1537,"sp":1538,"Ġvir":1539,"Ġvarious":1540,"Ġdynam":1541,"Ġfour":1542,"Ġhist":1543,"dependent":1544,"des":1545,"Ġlabor":1546,"abl":1547,"ii":1548,"Ġstrain":1549,"ification":1550,"Ġdemonstrated":1551,"Ġenviron":1552,"Ġmechanisms":1553,"Ġwithout":1554,"Ġdiscuss":1555,"Ġimpact":1556,"Ġunderstanding":1557,"Ġthus":1558,"Ġrevealed":1559,"medi":1560,"Ġtem":1561,"Ġtested":1562,"Ġstrategies":1563,"ulations":1564,"Ġreport":1565,"Ġquan":1566,"gl":1567,"ish":1568,"mit":1569,"14":1570,"Ġproduction":1571,"Ġpa":1572,"face":1573,"ocial":1574,"sars":1575,"own":1576,"ental":1577,"Ġpur":1578,"ty":1579,"Ġenzy":1580,"izing":1581,"xim":1582,"Ġ14":1583,"Ġsignal":1584,"ouse":1585,"95":1586,"ink":1587,"Ġsugges":1588,"Ġconfirmed":1589,"cle":1590,"ife":1591,"Ġ50":1592,"Ġpoly":1593,"Ġmac":1594,"Ġincrease":1595,"idence":1596,"mic":1597,"Ġcharacteris":1598,"Ġfoc":1599,"rolog":1600,"las":1601,"Ġcollected":1602,"arm":1603,"Ġintern":1604,"duce":1605,"Ġci":1606,"ator":1607,"Ġanimal":1608,"Ġmat":1609,"pv":1610,"ĠÃ":1611,"Ġorgan":1612,"Ġenh":1613,"Ġallow":1614,"Ġ13":1615,"Ġindividu":1616,"ured":1617,"Ġexpos":1618,"Ġdistrib":1619,"Ġmedical":1620,"onch":1621,"Ġpresence":1622,"18":1623,"ledge":1624,"Ġrt":1625,"000":1626,"Ġkey":1627,"ately":1628,"Ġshown":1629,"Ġur":1630,"ids":1631,"Ġplas":1632,"agement":1633,"Ġhumans":1634,"Ġsocial":1635,"Ġx":1636,"Ġgu":1637,"Ġcritical":1638,"ensive":1639,"Ġmeasures":1640,"lymph":1641,"Ġtherefore":1642,"Ġdirect":1643,"ique":1644,"Ġ\"":1645,"Ġanimals":1646,"Ġconcentr":1647,"asing":1648,"Ġher":1649,"Ġace":1650,"Ġillness":1651,"Ġphys":1652,"17":1653,"Ġfocus":1654,"vent":1655,"cover":1656,"Ġlocal":1657,"Ġ95":1658,"ield":1659,"Ġprof":1660,"ism":1661,"jec":1662,"Ġdomain":1663,"Ġvitro":1664,"Ġnegative":1665,"Ġpreval":1666,"Ġrecogn":1667,"Ġprac":1668,"Ġevolution":1669,"Ġscreen":1670,"Ġig":1671,"Ġmy":1672,"Ġ16":1673,"Ġbacterial":1674,"Ġproduc":1675,"Ġtherapeutic":1676,"Ġmuc":1677,"Ġfactor":1678,"Ġless":1679,"Ġindividuals":1680,"Ġamin":1681,"Ġneutral":1682,"ols":1683,"Ġbronch":1684,"uk":1685,"Ġequ":1686,"Ġenvironment":1687,"cepti":1688,"Ġmicrob":1689,"ceptib":1690,"ider":1691,"Ġlo":1692,"Ġany":1693,"Ġserum":1694,"Ġdiagnostic":1695,"Ġpossible":1696,"Ġ2019":1697,"reated":1698,"Ġso":1699,"ho":1700,"Ġtract":1701,"imens":1702,"Ġinteractions":1703,"Ġestabl":1704,"Ġknowledge":1705,"sis":1706,"erase":1707,"cell":1708,"itivity":1709,"osph":1710,"Ġtherapy":1711,"ised":1712,"Ġnas":1713,"Ġpor":1714,"induced":1715,"Ġmark":1716,"care":1717,"Ġreduced":1718,"Ġresid":1719,"Ġâ":1720,"Ġsupport":1721,"Ġlymph":1722,"Ġnec":1723,"Ġrange":1724,"ality":1725,"Ġ18":1726,"ake":1727,"ulmon":1728,"hv":1729,"Ġgo":1730,"Ġconduc":1731,"illance":1732,"Ġagents":1733,"Ġmanagement":1734,"hip":1735,"pa":1736,"Ġoutbreaks":1737,"Ġinvolved":1738,"Ġche":1739,"Ġline":1740,"Ġimprove":1741,"Ġret":1742,"ibv":1743,"Ġfut":1744,"Ġrh":1745,"Ġrates":1746,"ules":1747,"ores":1748,"Ġthen":1749,"ause":1750,"Ġinn":1751,"Ġbeing":1752,"Ġtesting":1753,"atures":1754,"gi":1755,"Ġregions":1756,"ĠÎ":1757,"Ġincluded":1758,"fication":1759,"Ġles":1760,"Ġprimary":1761,"Ġstrong":1762,"Ġobtained":1763,"ditions":1764,"tok":1765,"Ġ.":1766,"wide":1767,"iter":1768,"Ġed":1769,"infected":1770,"ense":1771,"Ġcir":1772,"ormal":1773,"Ġsurveillance":1774,"met":1775,"Ġnat":1776,"Ġfuture":1777,"Ġassays":1778,"Ġhiv":1779,"Ġdiarrhe":1780,"Ġconditions":1781,"Ġsusceptib":1782,"Ġfollowing":1783,"Ġgi":1784,"Ġtra":1785,"ced":1786,"Ġpaper":1787,"Ġchr":1788,"Ġcompound":1789,"Ġ30":1790,"cul":1791,"Ġsince":1792,"Ġinduced":1793,"Ġwee":1794,"sc":1795,"ither":1796,"Ġorig":1797,"Ġemerging":1798,"den":1799,"Ġregul":1800,"xt":1801,"other":1802,"Ġentr":1803,"com":1804,"ctions":1805,"Ġrelative":1806,"Ġmal":1807,"Ġmechanism":1808,"Ġve":1809,"Ġge":1810,"Ġlaboratory":1811,"Ġfusion":1812,"ights":1813,"Ġartic":1814,"Ġamino":1815,"Ġlikely":1816,"otic":1817,"Ġnetwork":1818,"cod":1819,"Ġtranscription":1820,"Ġstand":1821,"trans":1822,"Ġatten":1823,"ulmonary":1824,"Ġactivation":1825,"Ġevaluated":1826,"Ġsci":1827,"Ġinterfer":1828,"Ġsurvi":1829,"Ġmonth":1830,"line":1831,"Ġcytok":1832,"Ġdem":1833,"Ġrecombinant":1834,"icity":1835,"posed":1836,"Ġfamily":1837,"Ġdid":1838,"Ġcross":1839,"Ġconsider":1840,"inf":1841,"Ġbiological":1842,"Ġol":1843,"bor":1844,"Ġrequired":1845,"Ġsour":1846,"ained":1847,"uf":1848,"Ġhem":1849,"Ġ24":1850,"Ġstructural":1851,"Ġlos":1852,"Ġsame":1853,"Ġic":1854,"pose":1855,"ep":1856,"Ġste":1857,"Ġpreviously":1858,"Ġentry":1859,"Ġcontin":1860,"Ġincreasing":1861,"Ġ11":1862,"more":1863,"bid":1864,"Ġinj":1865,"Ġresist":1866,"Ġmedic":1867,"atis":1868,"ially":1869,"Ġbecause":1870,"uted":1871,"Ġess":1872,"Ġmo":1873,"Ġbro":1874,"Ġsurface":1875,"Ġdrugs":1876,"Ġfull":1877,"time":1878,"ax":1879,"mine":1880,"Ġhr":1881,"Ġorder":1882,"Ġproper":1883,"cent":1884,"aps":1885,"type":1886,"Ġgrowth":1887,"Ġculture":1888,"Ġfever":1889,"ople":1890,"vic":1891,"eline":1892,"Ġbel":1893,"Ġrecently":1894,"Ġda":1895,"Ġox":1896,"bers":1897,"Ġpri":1898,"art":1899,"acts":1900,"Ġlife":1901,"ising":1902,"Ġmean":1903,"Ġgeneral":1904,"Ġfram":1905,"Ġcommunity":1906,"Ġresult":1907,"Ġpedv":1908,"Ġinvestigated":1909,"Ġimmunity":1910,"Ġsum":1911,"Ġparame":1912,"Ġeb":1913,"Ġchalleng":1914,"Ġele":1915,"Ġrepresent":1916,"Ġrsv":1917,"Ġvaccination":1918,"Ġoptim":1919,"Ġrepro":1920,"25":1921,"Ġdetermine":1922,"Ġcharacteristics":1923,"Ġbeha":1924,"29":1925,"Ġvia":1926,"tered":1927,"ards":1928,"Ġadap":1929,"Ġlimited":1930,"Ġ17":1931,"Ġinteraction":1932,"Ġthem":1933,"Ġanalyzed":1934,"Ġmedi":1935,"Ġday":1936,"ogene":1937,"cine":1938,"tration":1939,"Ġprevent":1940,"plement":1941,"minis":1942,"Ġsensitivity":1943,"Ġadd":1944,"Ġpeople":1945,"ope":1946,"Ġsuccess":1947,"Ġproble":1948,"Ġexpressed":1949,"Ġpathogenesis":1950,"abs":1951,"set":1952,"Ġdifferences":1953,"cs":1954,"Ġcoronaviruses":1955,"press":1956,"for":1957,"ists":1958,"Ġfacil":1959,"adi":1960,"Ġreaction":1961,"Ġwide":1962,"Ġfurthermore":1963,"Ġchronic":1964,"Ġbehavi":1965,"inc":1966,"Ġsol":1967,"Ġ25":1968,"Ġfail":1969,"idered":1970,"Ġvis":1971,"Ġprevalence":1972,"mb":1973,"Ġsa":1974,"ene":1975,"Ġhom":1976,"ances":1977,"ai":1978,"Ġmight":1979,"Ġcontr":1980,"Ġconsidered":1981,"Ġactive":1982,"Ġgl":1983,"Ġrece":1984,"Ġventi":1985,"Ġdiarrhea":1986,"ier":1987,"Ġrelations":1988,"Ġtypes":1989,"Ġconducted":1990,"Ġpulmonary":1991,"Ġseverity":1992,"Ġwild":1993,"Ġdetermined":1994,"Ġfunctional":1995,"Ġtissue":1996,"Ġvery":1997,"Ġcontact":1998,"Ġcancer":1999,"Ġoverall":2000,"Ġwhether":2001,"Ã¤":2002,"rsv":2003,"helial":2004,"Ġisolated":2005,"Ġpolymerase":2006,"inated":2007,"Ġte":2008,"man":2009,"Ġessential":2010,"Ġoften":2011,"Ġvalu":2012,"Ġvivo":2013,"Ġeither":2014,"otype":2015,"Ġcat":2016,"Ġchain":2017,"viruses":2018,"Ġaccur":2019,"covery":2020,"Ġdetect":2021,"Ġcauses":2022,"Ġdie":2023,"Ġprovides":2024,"tle":2025,"Ġdynamics":2026,"Ġanalyses":2027,"Ġvect":2028,")-":2029,"Ġ100":2030,"fl":2031,"Ġprevention":2032,"Ġparticip":2033,"till":2034,"Ġplay":2035,"Ġinteres":2036,"ocytes":2037,"Ġfeatures":2038,"Ġwould":2039,"oid":2040,"onomic":2041,"Ġindividual":2042,"vant":2043,"Ġsl":2044,"och":2045,"Ġbetter":2046,"anced":2047,"aches":2048,"Ġspike":2049,"Ġlack":2050,"utions":2051,"hemical":2052,"Ġdescribed":2053,").":2054,"Ġincidence":2055,"Ġinflammatory":2056,"Ġtests":2057,"Ġconser":2058,"resp":2059,"Ġeffic":2060,"ok":2061,"Ġabs":2062,"vities":2063,"Ġfin":2064,"Ġutil":2065,"Ġhighl":2066,"az":2067,"ious":2068,"nal":2069,"Ġhelp":2070,"itor":2071,"ably":2072,"rotein":2073,"Ġadminis":2074,"Ġcompon":2075,"Ġacross":2076,"Ġsequencing":2077,"Ġsumm":2078,"Ġcalves":2079,"Ġibv":2080,"Ġexist":2081,"Ġpart":2082,"Ġability":2083,"Ġcomplete":2084,"Ġintegr":2085,"Ġdemonstrate":2086,"Ġstandard":2087,"Ġvs":2088,"tically":2089,"Ġinde":2090,"Ġworldwide":2091,"Ġconstr":2092,"Ġhealthcare":2093,"Ġdistribution":2094,"rob":2095,"associ":2096,"Ġpolic":2097,"lying":2098,"Ġphyl":2099,"omy":2100,"Ġmid":2101,"Ġclus":2102,"05":2103,"Ġstill":2104,"ides":2105,"Ġrelationship":2106,"activ":2107,"know":2108,"dr":2109,"Ġglycop":2110,"Ġtrial":2111,"verage":2112,"Ġaden":2113,"Ġidentification":2114,"eric":2115,"Ġpromo":2116,"Ġfunctions":2117,"mitted":2118,"vs":2119,"Ġtak":2120,"Ġapp":2121,"Ġcorrel":2122,"Ġconcer":2123,"Ġrhin":2124,"Ġphen":2125,"active":2126,"asc":2127,"associated":2128,"Ġimportance":2129,"Ġnatural":2130,"Ġcod":2131,"enge":2132,"Ġbat":2133,"Ġpathway":2134,"oplas":2135,"opath":2136,"ators":2137,"Ġapproaches":2138,"Ġii":2139,"ually":2140,"Ġmouse":2141,"Ġstrategy":2142,"Ġbefore":2143,"Ġasth":2144,"Ġmonths":2145,"Ġconclusions":2146,"30":2147,"ellular":2148,"coun":2149,"Ġrati":2150,"Ġoutcomes":2151,"Ġ2020":2152,"Ġques":2153,"Ġuseful":2154,"org":2155,"patitis":2156,"Ġresour":2157,"ml":2158,"Ġsch":2159,"Ġshort":2160,"Ġcurrently":2161,"Ġsco":2162,"Ġencod":2163,"Ġsignaling":2164,"Ġprotec":2165,"Ġstate":2166,"ibility":2167,"ength":2168,"Ġenzyme":2169,"Ġinnate":2170,"Ġstudied":2171,"mediated":2172,"Ġeven":2173,"ury":2174,"Ġmoreover":2175,"50":2176,"Ġread":2177,"tivities":2178,"Ġvalid":2179,"Ġremains":2180,"Ġfive":2181,"Ġbacteria":2182,"Ġexposure":2183,"enter":2184,"ences":2185,"Ġsites":2186,"Ġcompounds":2187,"rs":2188,"ark":2189,"ĠÂ":2190,"Ġcop":2191,"Ġprotection":2192,"oy":2193,"ner":2194,"Ġstructures":2195,"Ġprom":2196,"Ġrespons":2197,"andom":2198,"Ġauth":2199,"tosis":2200,"Ġisolates":2201,"Ġevents":2202,"mend":2203,"Ġlimit":2204,"otide":2205,"Ġbroad":2206,"ference":2207,"Ġcharacterized":2208,"Ġlip":2209,"Ġmit":2210,"Ġ'":2211,"Ġevaluate":2212,"Ġgre":2213,"Ġespec":2214,"aging":2215,"Ġfew":2216,"Ġach":2217,"Ġphosph":2218,"Ġdescribe":2219,"Ġq":2220,"Ġefficacy":2221,"inary":2222,"plied":2223,"Ġbio":2224,"Ġinhibition":2225,"Ġcentr":2226,"Ġchallenge":2227,"ether":2228,"ling":2229,"Ġprior":2230,"Ġbre":2231,"Ġindicate":2232,"Ġgiven":2233,"ficient":2234,"Ġintro":2235,"Ġsetting":2236,"hyl":2237,"Ġinhibitors":2238,"ydro":2239,"Ġinterferon":2240,"pite":2241,"Ġactivities":2242,"Ġconsist":2243,"Ġproposed":2244,"Ġexhib":2245,"Ġzo":2246,"iat":2247,"eration":2248,"dle":2249,"ret":2250,"22":2251,"Ġstat":2252,"Ġspecimens":2253,"Ġnormal":2254,"Ġscreening":2255,"termin":2256,"Ġinvestigate":2257,"pri":2258,"Ġct":2259,"Ġclose":2260,"Ġdecreased":2261,"Ġpopulations":2262,"andid":2263,"Ġsubsequ":2264,"Ġnor":2265,"Ġsix":2266,"Ġseas":2267,"Ġparticles":2268,"Ġir":2269,"olar":2270,"Ġmass":2271,"Ġquantit":2272,"Ġtum":2273,"aryn":2274,"Ġassociation":2275,"vered":2276,"Ġthreat":2277,"Ġwhereas":2278,"Ġprot":2279,"Ġprocesses":2280,"Ġampl":2281,"results":2282,"Ġrandom":2283,"Ġporcine":2284,"Ġcandid":2285,"Ġhepatitis":2286,"001":2287,"mv":2288,"Ġprogr":2289,"Ġinclude":2290,"Ġae":2291,"Ġespecially":2292,"Ġhand":2293,"Ġstatis":2294,"Ġspecificity":2295,"istic":2296,"infection":2297,"Ġfollowed":2298,"Ġantibio":2299,"Ġliver":2300,"Ġtemper":2301,"Ġpresented":2302,"Ġepidemiological":2303,"Ġadj":2304,"Ġachie":2305,"Ġliter":2306,"Ġnan":2307,"Ġasthma":2308,"Ġarticle":2309,"Ġpeptide":2310,"Ġpredict":2311,"tt":2312,"Ġareas":2313,"Ġdown":2314,"jective":2315,"Ġfield":2316,"acellular":2317,"Ġdog":2318,"Ġreduce":2319,"Ġmamm":2320,"Ġpathways":2321,"Ġexperimental":2322,"ll":2323,"hr":2324,"Ġrib":2325,"23":2326,"Ġvers":2327,"ophag":2328,"Ġsize":2329,"play":2330,"erc":2331,"Ġcontribute":2332,"ule":2333,"Ġenter":2334,"clud":2335,"ision":2336,"bo":2337,"Ġquality":2338,"Ġmacroph":2339,"Ġparameters":2340,"terns":2341,"Ġsample":2342,"Ġindicated":2343,"40":2344,"ke":2345,"Ġisolation":2346,"Ġfil":2347,"Ġvol":2348,"Ġleast":2349,"Ġlink":2350,"Ġsero":2351,"Ġdivers":2352,"way":2353,"roscop":2354,"Ġ28":2355,"stinal":2356,"pective":2357,"Ġgenomic":2358,"Ġmade":2359,"Ġapplied":2360,"bs":2361,"Ġcats":2362,"ducing":2363,"fs":2364,"Ġperformance":2365,"rosis":2366,"Ġpatterns":2367,"po":2368,"iques":2369,"26":2370,"Ġvalue":2371,"idae":2372,"Ġplasma":2373,"plant":2374,"Ġsurvival":2375,"acer":2376,"conclusion":2377,"Ġfacilit":2378,"Ġinternational":2379,"ording":2380,"semb":2381,"abol":2382,"Ġrecommend":2383,"ger":2384,"entially":2385,"Ġsuggesting":2386,"Ġsynthesis":2387,"Ġresistance":2388,"Ġmg":2389,"Ġstress":2390,"Ġrequire":2391,"Ġopen":2392,"da":2393,"app":2394,"Ġhealthy":2395,"21":2396,"known":2397,"43":2398,"Ġparticularly":2399,"pir":2400,"Ġexperi":2401,"Ġ21":2402,"Ġproperties":2403,"Ġbur":2404,"amp":2405,"covered":2406,"Ġexamined":2407,"Ġchange":2408,"Ġdespite":2409,"Ġtargets":2410,"27":2411,"ored":2412,"Ġmutations":2413,"Ġprovided":2414,"ank":2415,"Ġaffected":2416,"Ġemergency":2417,"Ġneeded":2418,"Ġinitial":2419,"Ġstim":2420,"Ġpathogenic":2421,"Ġradi":2422,"Ġnsp":2423,"ologies":2424,"Ġleading":2425,"oviruses":2426,"Ġmrna":2427,"Ġtox":2428,"Ġcardi":2429,"bidity":2430,"Ġden":2431,"Ġadditional":2432,"Ġaddress":2433,"Ġtreated":2434,"ploy":2435,"omen":2436,"Ġmolecules":2437,"inct":2438,"Ġzoon":2439,"Ġtog":2440,"Ġiss":2441,"astro":2442,"Ġinflammation":2443,"Ġratio":2444,"Ġagent":2445,"ij":2446,"Ġaccess":2447,"Ġprol":2448,"fr":2449,"ectr":2450,"Ġfar":2451,"Ġpigs":2452,"Ġdeliver":2453,"ont":2454,"Ġrestric":2455,"Ġdifferenti":2456,"Ġliterature":2457,"24":2458,"Ġcentral":2459,"Ġdeaths":2460,"sy":2461,"Ġoutcome":2462,"Ġsuccessful":2463,"Ġformation":2464,"Ġeu":2465,"tail":2466,"vian":2467,"Ġenvelop":2468,"Ġunique":2469,"pression":2470,"Ġyo":2471,"Ġcapac":2472,"ulate":2473,"ographic":2474,"Ġtyp":2475,"ikv":2476,"Ġphase":2477,"Ġtogether":2478,"Ġhy":2479,"Ġatt":2480,"Ġprogress":2481,"jects":2482,"ann":2483,"Ġmeasure":2484,"Ġhyper":2485,"fusion":2486,"Ġphylogene":2487,"Ġfib":2488,"Ġrv":2489,"ologic":2490,"aneous":2491,"Ġdistinct":2492,"Ġmiddle":2493,"Ġ23":2494,"Ġact":2495,"Ġben":2496,"Ġaccording":2497,"ode":2498,"Ġmetabol":2499,"Ġ40":2500,"Ġvalues":2501,"han":2502,"Ġreduction":2503,"Ġrat":2504,"oronavirus":2505,"ody":2506,"Ġselected":2507,"Ġpoor":2508,"Ġreverse":2509,"Ġreplic":2510,"amin":2511,"Ġconserved":2512,"Ġcer":2513,"phal":2514,"Ġsout":2515,"Ġnecess":2516,"Ġwater":2517,"els":2518,"Ġeconomic":2519,"Ġprotective":2520,"ateri":2521,"ient":2522,"method":2523,"asis":2524,"ands":2525,"Ġimproved":2526,"Ġvirul":2527,"isa":2528,"Ġdiversity":2529,"Ġsear":2530,"Ġdose":2531,"rh":2532,"Ġapop":2533,"afety":2534,"Ġhypot":2535,"iatric":2536,"Ġgenomes":2537,"dv":2538,"Ġdys":2539,"Ġyear":2540,"ivers":2541,"avage":2542,"Ġcontrast":2543,"Ġweeks":2544,"rt":2545,"Ġdam":2546,"Ġsecondary":2547,"Ġestablished":2548,"Ġfailure":2549,"uble":2550,"Ġtool":2551,"Ġsal":2552,"Ġaltern":2553,"Ġ27":2554,"Ġgover":2555,"Ġrapidly":2556,"Ġconte":2557,"Ġable":2558,"Ġly":2559,"Ġadmission":2560,"Ġinterven":2561,"by":2562,"Ġgastro":2563,"positive":2564,"Ġbats":2565,"Ġtow":2566,"Ġcarri":2567,"Ã³":2568,"Ġinjury":2569,"be":2570,"Ġdeveloping":2571,"200":2572,"Ġdatab":2573,"Ġquantitative":2574,"Ġcombination":2575,"Ġmicrobi":2576,"ococ":2577,"Ġtravel":2578,"Ġpeak":2579,"Ġsource":2580,"Ġprep":2581,"Ġadults":2582,"Ġservic":2583,"Ġul":2584,"Ġfatal":2585,"28":2586,"Ġigg":2587,"Ġprotease":2588,"Ġcomparis":2589,"Ġpersist":2590,"Ġsubst":2591,"cher":2592,"Ġsimple":2593,"lor":2594,"viridae":2595,"uary":2596,"Ġacids":2597,"Ġhistory":2598,"Ġepithelial":2599,"cin":2600,"Ġeast":2601,"term":2602,"Ġpan":2603,"oma":2604,"Ġconsequ":2605,"not":2606,"immun":2607,"tives":2608,"acerb":2609,"Ġfree":2610,"omal":2611,"Ġpharm":2612,"Ġguid":2613,"Ġns":2614,"Ġresulting":2615,"Ġreceptors":2616,"Ġload":2617,"Ġcontrols":2618,"ocyte":2619,"Ġpublished":2620,"inflamm":2621,"Ġtex":2622,"Ġstates":2623,"Ġinterventions":2624,"Ġhcv":2625,"gev":2626,"Ġunknown":2627,"Ġresponsible":2628,"Ġtur":2629,"Ġsuggests":2630,"otypes":2631,"rence":2632,"Ġcontinu":2633,"arding":2634,"Ġclear":2635,"Ġmorbidity":2636,"Ġassessed":2637,"Ġtissues":2638,"Ġself":2639,"ography":2640,"Ġnetworks":2641,"Ġphylogenetic":2642,"Ġcontaining":2643,"inter":2644,"Ġ26":2645,"Ġkin":2646,"Ġexacerb":2647,"Ġobserv":2648,"urse":2649,"Ġsuf":2650,"Ġmonitor":2651,"ire":2652,"Ġhb":2653,"Ġestimated":2654,"Ġefficient":2655,"ork":2656,"Ġoccurred":2657,"Ġpress":2658,"Ġneutralizing":2659,"Ġavian":2660,"Ġgovern":2661,"Ġyet":2662,"Ġtargeting":2663,"Ġbal":2664,"Ġsensitive":2665,"lr":2666,"Ġminim":2667,"Ġemergence":2668,"Ġappropri":2669,"Ġrelevant":2670,"Ġyoung":2671,"Ġpass":2672,"ensity":2673,"Ġaff":2674,"ascular":2675,"Ġinoc":2676,"rope":2677,"ams":2678,"ify":2679,"Ġelectr":2680,"Ġglycoprotein":2681,"Ġsir":2682,"Ġtechniques":2683,"Ġblock":2684,"ets":2685,"Ġhep":2686,"aff":2687,"odes":2688,"ocom":2689,"Ġsyncy":2690,"Ġupon":2691,"Ġbir":2692,"Ġnow":2693,"Ġaccoun":2694,"Ġquanti":2695,"Ġfec":2696,"Ġeti":2697,"Ġbu":2698,"Ġimplement":2699,"Ġdogs":2700,"Ġgreat":2701,"63":2702,"cd":2703,"Ġ29":2704,"Ġcapacity":2705,"itu":2706,"Ġapplications":2707,"Ġgenerated":2708,"Ġchallenges":2709,"Ġevaluation":2710,"Ġautophag":2711,"Ġpracti":2712,"Ġproced":2713,"Ġtechnology":2714,"Ġmhv":2715,"Ġapplication":2716,"unction":2717,"trum":2718,"Ġresulted":2719,"Ġventilation":2720,"Ġorf":2721,"ss":2722,"Ġlear":2723,"Ġrol":2724,"mal":2725,"ice":2726,"Ġpeptides":2727,"Ġspati":2728,"geal":2729,"Ġhcov":2730,"abil":2731,"Ġproduced":2732,"Ġpotentially":2733,"Ġoper":2734,"Ġnational":2735,"ola":2736,"acted":2737,"Ġunderlying":2738,"aryngeal":2739,"ca":2740,"Ġdoc":2741,"Ġcontain":2742,"Ġintervention":2743,"Ġgreater":2744,"Ġdisplay":2745,"Ġdiffic":2746,"Ġorganis":2747,"Ġbov":2748,"Ġreser":2749,"Ġeng":2750,"Ġsusceptible":2751,"Ġonset":2752,"Ġenvironmental":2753,"Ã¼":2754,"Ġcycle":2755,"hum":2756,"Ġ22":2757,"Ġglyc":2758,"iting":2759,"Ġentero":2760,"Ġtemperature":2761,"Ġcomm":2762,"agen":2763,"Ġregarding":2764,"Ġnasal":2765,"cence":2766,"Ġasy":2767,"Ġalg":2768,"Ġdetail":2769,"anded":2770,"Ġstatus":2771,"Ġinfants":2772,"Ġmas":2773,"gene":2774,"Ġnucleotide":2775,"Ġsecre":2776,"Ġbecome":2777,"Ġcost":2778,"Ġprov":2779,"Ġmak":2780,"Ġchick":2781,"aw":2782,"binding":2783,"Ġlog":2784,"borne":2785,"rological":2786,"Ġorigin":2787,"99":2788,"Ġconcentrations":2789,"Ġassemb":2790,"Ġfinally":2791,"Ġsoci":2792,"onucle":2793,"izes":2794,"Ġconcentration":2795,"mented":2796,"Ġmild":2797,"Ġspecif":2798,"Ġeurope":2799,"35":2800,"Ġafric":2801,"ening":2802,"Î±":2803,"Ġtimes":2804,"Ġproblem":2805,"Ġtop":2806,"stract":2807,"Ġsuper":2808,"ancing":2809,"Ġderived":2810,"Ġdaily":2811,"pi":2812,"Ġresidues":2813,"Ġenhanced":2814,"Ġscienti":2815,"this":2816,"ubiqu":2817,"Ġsafety":2818,"seud":2819,"Ġtransplant":2820,":/":2821,"itation":2822,"Ġtext":2823,"che":2824,"hc":2825,"go":2826,"Ġmm":2827,"Ġparas":2828,"Ġsuggested":2829,"Ġemploy":2830,"Ġinduce":2831,"Ġcoh":2832,"Ġaverage":2833,"38":2834,"Ġmainly":2835,"ici":2836,"Ġexperiments":2837,"Ġlit":2838,"Ġpolicy":2839,"Ġcontext":2840,"Ġmateri":2841,"Ġcorresp":2842,"inese":2843,"ek":2844,"Ġolig":2845,"Ġtools":2846,"Ġfrag":2847,"Ġcytokines":2848,"put":2849,"rup":2850,"Ġcompos":2851,"terminal":2852,"Ġzoonotic":2853,"Ġmicroscop":2854,"34":2855,"Ġintensive":2856,"flu":2857,"Ġhc":2858,"lets":2859,"Ġsubjects":2860,"methods":2861,"36":2862,"Ġpropor":2863,"Ġrab":2864,"Ġpattern":2865,"anes":2866,"Ġmix":2867,"01":2868,"Ġpredicted":2869,"Ġapproxim":2870,"Ġdelivery":2871,"ogenic":2872,"Ġarea":2873,"Ġtransport":2874,"ior":2875,"ites":2876,"itional":2877,"Ġmeasured":2878,"Ġattenu":2879,"Ġcam":2880,"://":2881,"gs":2882,"Ġmoder":2883,"Ġepidemiology":2884,"Ġdiscussed":2885,"human":2886,"Ġrot":2887,"Ġnucleic":2888,"Ġdesigned":2889,"Ġmedicine":2890,"Ġframew":2891,"Ġhetero":2892,"Ġindus":2893,"Ġtaken":2894,"Ġappe":2895,"Ġcoli":2896,"Ġmacrophages":2897,"bl":2898,"Ġcomponents":2899,"gens":2900,"Î²":2901,"Ġchinese":2902,"Ġdiverse":2903,"alian":2904,"Ġbiom":2905,"hold":2906,"Ġsitu":2907,"Ġappropriate":2908,"ona":2909,"Ġcov":2910,"Ġdifference":2911,"Ġbody":2912,"Ġreports":2913,"ella":2914,"ensin":2915,"Ġwu":2916,"Ġfood":2917,"ubiquit":2918,"Ġce":2919,"Ġtrad":2920,"Ġbehavior":2921,"eness":2922,"Ġefficiency":2923,"Ġroles":2924,"anti":2925,"Ġfrequently":2926,"Ġapoptosis":2927,"Ġquestion":2928,"Ġ60":2929,"Ġselection":2930,"Ġsyncytial":2931,"Ġvector":2932,"down":2933,"Ġairway":2934,"Ġparticipants":2935,"opes":2936,"Ġbrain":2937,"Ġunivers":2938,"Ġpseud":2939,"Ġmedian":2940,"Ġflow":2941,"cont":2942,"Ġprepared":2943,"ring":2944,"Ġlength":2945,"inflammatory":2946,"Ġhospitals":2947,"Ġrhinovirus":2948,"gn":2949,"Ġinduction":2950,"Ġlast":2951,"Ġsigns":2952,"Ġestimate":2953,"ah":2954,"Ġdri":2955,"Ġconstruc":2956,"60":2957,"nf":2958,"Ġneuro":2959,"ev":2960,"mers":2961,"Ġloss":2962,"Ġsummar":2963,"hest":2964,"Ġvariety":2965,"emia":2966,"pp":2967,"encies":2968,"cephal":2969,"Ġmuch":2970,"Ġbest":2971,"ables":2972,"Ġcommunic":2973,"ĪĴ":2974,"Ġlig":2975,"Ġ35":2976,"robial":2977,"Ġpast":2978,"iving":2979,"Ġ2009":2980,"day":2981,"Ġadult":2982,"Ġinhibited":2983,"Ġtumor":2984,"Ġbasic":2985,"forts":2986,"Ġalternative":2987,"ygen":2988,"lex":2989,"ject":2990,"Ġinfluence":2991,"Ġdomains":2992,"Ġregulation":2993,"Ġpoint":2994,"Ġremo":2995,"Ġinhibitor":2996,"Ġswine":2997,"ru":2998,"Ġprospec":2999,"ibr":3000,"Ġhighest":3001,"Ġenzym":3002,"80":3003,"ficiency":3004,"Ġassessment":3005,"Ġtrials":3006,"ophil":3007,"part":3008,"Ġbar":3009,"Ġsystematic":3010,"Ġfrequency":3011,"Ġaimed":3012,"Ġdiscovery":3013,"Ġwhole":3014,"mptomatic":3015,"Ġgood":3016,"vement":3017,"Ġefforts":3018,"Ġmedia":3019,"37":3020,"ache":3021,"Ġsk":3022,"ero":3023,"ower":3024,"Ġreceived":3025,"Ġplace":3026,"Ġduration":3027,"Ġbasis":3028,"Ġantigens":3029,"Ġplat":3030,"engue":3031,"Ġcombined":3032,"Ġhrv":3033,"orith":3034,"Ġestablish":3035,"Ġlate":3036,"air":3037,"Ġnature":3038,"Ġhospitalized":3039,"ades":3040,"bd":3041,"Ġfem":3042,"Ġfig":3043,"Ġcomparison":3044,"Ġalgorith":3045,"Ġseries":3046,"ours":3047,"Ġremain":3048,"Ġaffect":3049,"Ġcorrelation":3050,"Ġ)":3051,"Ġcourse":3052,"Ġcruc":3053,"Ġauthor":3054,"Ġspecifically":3055,"Ġfeline":3056,"Ġbovine":3057,"la":3058,"Ġbenef":3059,"fold":3060,"row":3061,"Ġpropose":3062,"otensin":3063,"Ġamo":3064,"Ġaround":3065,"Ġneut":3066,"mok":3067,"Ġti":3068,"Ġswabs":3069,"Ġcytokine":3070,"Ġframework":3071,"Ġcycl":3072,"Ġhosts":3073,"Ġproducts":3074,"Ġadenovirus":3075,"protein":3076,"Ġextensive":3077,"Ġhypothes":3078,"Ġmill":3079,"duces":3080,"Ġterms":3081,"Ġsusceptibility":3082,"ones":3083,"oly":3084,"Ġleuk":3085,"pes":3086,"mem":3087,"que":3088,"utes":3089,"Ġlic":3090,"Ġaspec":3091,"Ġvan":3092,"Ġmembers":3093,"osomal":3094,"ported":3095,"ventional":3096,"ume":3097,"Ġepidemics":3098,"Ġsubun":3099,"Ġinstit":3100,"Ġshed":3101,"pts":3102,"ficial":3103,"Ġtransfer":3104,"Ġtub":3105,"Ġbiology":3106,"Ġicu":3107,"Ġnasoph":3108,"Ġadministration":3109,"Ġcommonly":3110,"Ġtrig":3111,"Ġ37":3112,"Ġprotoc":3113,"90":3114,"Ġangi":3115,"Ġregression":3116,"Ġlarg":3117,"Ġdirectly":3118,"Ġpd":3119,"Ġrang":3120,"Ġseg":3121,"Ġtranslation":3122,"Ġplatform":3123,"rophil":3124,"conclusions":3125,"uring":3126,"Ġcalc":3127,"hal":3128,"quired":3129,"Ġrecognition":3130,"Ġabstract":3131,"Ġrelatively":3132,"Ġ48":3133,"Ġresources":3134,"roup":3135,"Ġcrucial":3136,"Ġlat":3137,"Ġepitopes":3138,"Ġexisting":3139,"Ġvariation":3140,"Ġdoes":3141,"Ġlines":3142,"Ġnecessary":3143,"Ġou":3144,"Ġstage":3145,"Ġebola":3146,"microbial":3147,"Ġprediction":3148,"ended":3149,"Ġretros":3150,"veolar":3151,"hens":3152,"ili":3153,"Ġdefined":3154,"rec":3155,"Ġcent":3156,"Ġtren":3157,"Ġcall":3158,"Ġdamage":3159,"Ġrelease":3160,"Ġreproduc":3161,"Ġstem":3162,"unt":3163,"Ġsubs":3164,"Ġchest":3165,"gf":3166,"Ġintracellular":3167,"dom":3168,"Ġreference":3169,"Ġproportion":3170,"Ġhm":3171,"Ġincor":3172,"Ġsurvey":3173,"Ġnur":3174,"tiveness":3175,"Ġindex":3176,"ict":3177,"Ġdegr":3178,"Ġunit":3179,"Ġfind":3180,"Ġworkers":3181,"Ġdecrease":3182,"Ġevol":3183,"Ġpromising":3184,"Ġenhance":3185,"struct":3186,"Ġifit":3187,"orescence":3188,"Ġabsence":3189,"do":3190,"np":3191,"Ġhydro":3192,"Ġcough":3193,"pected":3194,"argeted":3195,"Ġna":3196,"Ġmust":3197,"enced":3198,"Ġinactiv":3199,"Ġretrospective":3200,"Ġrecru":3201,"Ġcohort":3202,"imer":3203,"Ġsystemic":3204,"orph":3205,"Ġindicating":3206,"Ġthough":3207,"Ġcompre":3208,"Ġlesions":3209,"71":3210,"ool":3211,"Ġautophagy":3212,"Ġmaxim":3213,"Ġoxygen":3214,"cal":3215,"otox":3216,"Ġ31":3217,"Ġdengue":3218,"ocl":3219,"Ġencephal":3220,"Ġquar":3221,"Ġelisa":3222,"ints":3223,"Ġnm":3224,"Ġaction":3225,"idne":3226,"Ġrnas":3227,"Ġpediatric":3228,"Ġpressure":3229,"ude":3230,"Ġprrsv":3231,"Ġwuhan":3232,"Ġantimicrobial":3233,"ray":3234,"48":3235,"Ġalter":3236,"Ġlittle":3237,"otyp":3238,"Ġsubsequent":3239,"Ġseven":3240,"Ġsearch":3241,"ped":3242,"Ġeas":3243,"Ġimmunos":3244,"let":3245,"arily":3246,"Ġgran":3247,"Ġvp":3248,"Ġhtt":3249,"Ġcomput":3250,"Ġmoti":3251,"atives":3252,"ape":3253,"Ġ36":3254,"Ġwidely":3255,"Ġburden":3256,"Ġsepar":3257,"ream":3258,"Ġnumbers":3259,"Ġscore":3260,"enari":3261,"Ġspecial":3262,"Ġevent":3263,"Ġtrop":3264,"Ġdepend":3265,"Ġamplification":3266,"41":3267,"Ġasymptomatic":3268,"Ġcomprehens":3269,"wh":3270,"Ġcomplications":3271,"Ġkidne":3272,"Ġpotent":3273,"Ġincorpor":3274,"33":3275,"70":3276,"ĠÃł":3277,"Ġmucos":3278,"mod":3279,"ris":3280,"Ġcirc":3281,"Ġcertain":3282,"Ġsil":3283,"Ġconventional":3284,"Ġdatas":3285,"Ġprospective":3286,"Ġweight":3287,"Ġpractice":3288,"Ġdocum":3289,"Ġrotavirus":3290,"Ġgp":3291,"Ġlater":3292,"Ġplant":3293,"pd":3294,"Ġplan":3295,"Ġtraining":3296,"Ġcorrelated":3297,"most":3298,"Ġindependent":3299,"Ġmutation":3300,"Ġinterval":3301,"ylation":3302,"ancy":3303,"98":3304,"Ġattention":3305,"eding":3306,"Ġmonitoring":3307,"Ġled":3308,"tw":3309,"Ġspreading":3310,"Ġcleavage":3311,"less":3312,"Ġrob":3313,"fig":3314,"oh":3315,"pre":3316,"Ġorganization":3317,"Ġpsy":3318,"ird":3319,"Ġweek":3320,"45":3321,"Ġplays":3322,"Ġdon":3323,"Ġra":3324,"Ġmultiplex":3325,"Ġhome":3326,"rolled":3327,"Ġscenari":3328,"Ġcomprehensive":3329,"year":3330,"Ġintestinal":3331,"Ġaccum":3332,"Ġtransl":3333,"Ġelect":3334,"Ġelev":3335,"Ġcluster":3336,"Ġenvelope":3337,"Ġcolon":3338,"Ġkore":3339,"Ġpiglets":3340,"Ġpharmac":3341,"estern":3342,"Ġpneumoniae":3343,"covid":3344,"Ġeen":3345,"Ġcausing":3346,"Ġnasopharyngeal":3347,"fv":3348,"Ġcountry":3349,"Ġinvestigation":3350,"Ã¶":3351,"Ġbo":3352,"Ġneon":3353,"avi":3354,"function":3355,"gent":3356,"Ġframes":3357,"onding":3358,"Ġserious":3359,"Ġcondition":3360,"Ġdeg":3361,"Ġmajority":3362,"ze":3363,"Ġpsych":3364,"Ġalong":3365,"Ġobjective":3366,"hood":3367,"Ġlive":3368,"Ġpercent":3369,"Ġcriter":3370,"Ġinterest":3371,"Ġperce":3372,"taining":3373,"Â·":3374,"ipher":3375,"Ġcultures":3376,"Ġphysi":3377,"Ġsouth":3378,"ples":3379,"Ġcytoplas":3380,"Ġtgev":3381,"Ġfund":3382,"Ġ45":3383,"100":3384,"Ġdate":3385,"Ġein":3386,"Ġapproximately":3387,"Ġupper":3388,"68":3389,"Ġfit":3390,"Ġeth":3391,"Ġreli":3392,"aly":3393,"Ġards":3394,"Ġvariants":3395,"Ġmarch":3396,"Ġfore":3397,"ulin":3398,"Ġspatial":3399,"Ġ2015":3400,"regulated":3401,"Ġmammalian":3402,"ncov":3403,"Ġshows":3404,"Ġaus":3405,"Ġprofil":3406,"Ġcircul":3407,"Ġprop":3408,"Ġscientific":3409,"ochemical":3410,"Ġmanif":3411,"Ġnewly":3412,"ension":3413,"Ġauto":3414,"Ġcatal":3415,"Ġfluid":3416,"Ġneutrophil":3417,"Ġexample":3418,"Ġdifficult":3419,"ining":3420,"Ġeffectiveness":3421,"Ġprogression":3422,"Ġchrom":3423,"Ġoral":3424,"Ġms":3425,"Ġchem":3426,"aces":3427,"ional":3428,"Ġ38":3429,"Ġmob":3430,"igr":3431,"ry":3432,"Ġnext":3433,"Ġrespond":3434,"Ġmeans":3435,"Ġ%":3436,"Ġadop":3437,"Ġtranscript":3438,"Ġprolif":3439,"Ġubiquit":3440,"Ġstable":3441,"Ġseen":3442,"Ġfacilitate":3443,"Ġdatabase":3444,"Ġcommerc":3445,"ta":3446,"Ġconform":3447,"orders":3448,"Ġadmitted":3449,"dis":3450,"Ġconstit":3451,"Ġ90":3452,"Ġregulatory":3453,"Ġdegrad":3454,"Ġmake":3455,"ubation":3456,"Ġgeneration":3457,"oclonal":3458,"Ġrepe":3459,"Ġcas":3460,"Ġcomplement":3461,"Ġ80":3462,"Ġmicroscopy":3463,"ÃŃ":3464,"Ġproviding":3465,"Ġrobust":3466,"32":3467,"Ġwa":3468,"Ġrequires":3469,"Ġoptimal":3470,"inity":3471,"Ġadapt":3472,"Ġconsistent":3473,"Ġever":3474,"ifn":3475,"Ġpregn":3476,"Ġclos":3477,"Ġdiagnosed":3478,"Ġfrequent":3479,"Ġinfect":3480,"Ġjan":3481,"Ġrecognized":3482,"Ġcandidate":3483,"types":3484,"Ġmil":3485,"Ġsuppress":3486,"59":3487,"Ġeight":3488,"ergy":3489,"Ġcris":3490,"Ġtargeted":3491,"Ġold":3492,"plemented":3493,"31":3494,"Ġemerged":3495,"Ġast":3496,"thal":3497,"Ġrisks":3498,"bi":3499,"elines":3500,"Ġconn":3501,"Ġinteract":3502,"49":3503,"Ġchemical":3504,"Ġ2014":3505,"Ġconcern":3506,"Ġantibiotic":3507,"ws":3508,"print":3509,"Ġbios":3510,"Ġtraditional":3511,"ea":3512,"apsid":3513,"Ġalle":3514,"Ġscale":3515,"Ġevolutionary":3516,"yr":3517,"Ġmechan":3518,"membrane":3519,"group":3520,"Ġwestern":3521,"Ġperson":3522,"Ġlight":3523,"Ġseasonal":3524,"Ġissues":3525,"nt":3526,"erative":3527,"Ġbelong":3528,"77":3529,"Ġpower":3530,"Ġepitope":3531,"65":3532,"Ġtreatments":3533,"Ġmembr":3534,"jectives":3535,"Ġsources":3536,"Ġimplications":3537,"Ġbarri":3538,"ings":3539,"ĠâĢ":3540,"icians":3541,"Ġanother":3542,"Ġexpected":3543,"plicated":3544,"Ġnuclear":3545,"Ġmodified":3546,"Ġperipher":3547,"ift":3548,"Ġchap":3549,"ched":3550,"Ġcre":3551,"Ġsafe":3552,"Ġves":3553,"brid":3554,"uch":3555,"Ġexhibited":3556,"Ġsubstit":3557,"Ġneur":3558,"aged":3559,"Ġestimates":3560,"Ġaspects":3561,"Ġherpes":3562,"Ġalph":3563,"Ġsubstr":3564,"Ġmonoclonal":3565,"Ġdynamic":3566,"Ġkidney":3567,"Ġpreven":3568,"Ġrecombination":3569,"Ġner":3570,"Ġcanine":3571,"Ġstability":3572,"Ġproblems":3573,"Ġlearning":3574,"Ġtiters":3575,"Ġmr":3576,"Ġstep":3577,"Ã³n":3578,"Ġ2003":3579,"Ġsettings":3580,"Ġcorresponding":3581,"Ġear":3582,"osome":3583,"voir":3584,"Ġaccuracy":3585,"Ġinsights":3586,"Ġhen":3587,"Ġgenotype":3588,"Ġdelay":3589,"Ġpractic":3590,"Ġlipid":3591,"struc":3592,"derived":3593,"portun":3594,"Ġeduc":3595,"Ġmediated":3596,"Ġmir":3597,"Ġfip":3598,"Ġaged":3599,"Ġintra":3600,"Ġstar":3601,"Ġservices":3602,"Ġway":3603,"Ġbuil":3604,"abe":3605,"Ġdecision":3606,"Ġadditionally":3607,"Ġquarant":3608,"Ġinvas":3609,"glut":3610,"Ġdouble":3611,"psis":3612,"Ġenteric":3613,"ra":3614,"Ġcharacterization":3615,"stream":3616,"Ġexamine":3617,"oral":3618,"Ġmur":3619,"Ġincreases":3620,"Ġexplore":3621,"Ġcriteria":3622,"Ġclosely":3623,"rote":3624,"inte":3625,"Ġmag":3626,"Ġdele":3627,"ococcus":3628,"Ġopportun":3629,"ĠÏ":3630,"Ġreas":3631,"imin":3632,"aring":3633,"Ġalone":3634,"encing":3635,"ste":3636,"Ġappear":3637,"ror":3638,"Ġfer":3639,"ital":3640,"yst":3641,"yel":3642,"Ġphysical":3643,"Ġreproduction":3644,"Ġcompare":3645,"Ġprocessing":3646,"Ġangiotensin":3647,"Ġmodeling":3648,"Ġinteresting":3649,"Ġput":3650,"itable":3651,"Ġepis":3652,"Ġgenerally":3653,"44":3654,"tag":3655,"isher":3656,"Ġmach":3657,"equ":3658,"Ġameric":3659,"Ġrecovery":3660,"oglob":3661,"Ġregard":3662,"Ġdistress":3663,"ales":3664,"fied":3665,"istry":3666,"ogenous":3667,"Ġimplementation":3668,"link":3669,"Ġunited":3670,"ĠâĢ«":3671,"Ġcateg":3672,"Ġdepart":3673,"Ġallows":3674,"Ġstatistical":3675,"Ġvirulence":3676,"Ġhal":3677,"Ġrout":3678,"Ġocc":3679,"Ġfa":3680,"Ġfully":3681,"Ġaccurate":3682,"ft":3683,"Ġforms":3684,"Ġrare":3685,"ucid":3686,"Ġwhat":3687,"itig":3688,"75":3689,"land":3690,"Ġvectors":3691,"Ġfecal":3692,"39":3693,"Ġdisorders":3694,"Ġbronchi":3695,"Ġtowards":3696,"Ġreservoir":3697,"ban":3698,"mid":3699,"Ġthroughout":3700,"Ġmale":3701,"Ġheterogene":3702,"aria":3703,"Ġbeg":3704,"Ġexperiment":3705,"Ġtechnologies":3706,"Ġyield":3707,"aster":3708,"Ġimaging":3709,"Ġrather":3710,"Ġcarried":3711,"Ġgovernment":3712,"Ġsera":3713,"Ġmus":3714,"Ġinhibitory":3715,"Ġconfirm":3716,"88":3717,"Ġrats":3718,"Ġcore":3719,"Ġprec":3720,"Ġvar":3721,"Ġ32":3722,"Ġeffectively":3723,"pan":3724,"utr":3725,"abor":3726,"Ġbronchitis":3727,"Ġolder":3728,"Ġpanel":3729,"Ġzikv":3730,"erous":3731,"ril":3732,"rocy":3733,"Ġcounter":3734,"free":3735,"Ġsepsis":3736,"phyl":3737,"Ġadvant":3738,"Ġelectron":3739,"Ġseem":3740,"poral":3741,"Ġ33":3742,"Ġothers":3743,"ĠÃ©":3744,"Ġ2012":3745,"ĠâĪĴ":3746,"Ġpurified":3747,"Ġperipheral":3748,"Ġhaving":3749,"Ġsubunit":3750,"oses":3751,"Ġtechnique":3752,"Ġexposed":3753,"Ġhmpv":3754,"oles":3755,"Ġindustry":3756,"Ġnucleoc":3757,"Ġcns":3758,"Ġrefl":3759,"Ġhis":3760,"cp":3761,"apping":3762,"ember":3763,"Ġ39":3764,"ubmed":3765,"Ġhospitalization":3766,"Ġlungs":3767,"Ġow":3768,"Ġchlor":3769,"Ġimmunization":3770,"no":3771,"ĠĠ":3772,"Ġhours":3773,"Ġproduce":3774,"Ġpolymorph":3775,"Ġguidelines":3776,"Ġafrica":3777,"Ġmutant":3778,"Ġtherapies":3779,"going":3780,"omestic":3781,"Ġstaff":3782,"Ġinfectivity":3783,"Ġwomen":3784,"Ġmitig":3785,"stranded":3786,"Ġattrib":3787,"Ġ2013":3788,"Ġhaem":3789,"ournal":3790,"hematic":3791,"Ġpurpose":3792,"Ġabund":3793,"Ġpredom":3794,"Ġmicrobial":3795,"zing":3796,"ulating":3797,"Ġview":3798,"Ġger":3799,"Ġreviewed":3800,"Ġpractices":3801,"ww":3802,"Ġnumerous":3803,"Ġnp":3804,"Ġpresentation":3805,"Ġinternal":3806,"Ġaeros":3807,"97":3808,"ients":3809,"Ġlibr":3810,"Ġdep":3811,"Ġfamil":3812,"isted":3813,"osomes":3814,"Ġstrongly":3815,"Ġvesic":3816,"Ġbind":3817,"Ġmembranes":3818,"activity":3819,"ysis":3820,"Ġroutine":3821,"bp":3822,"Ġmigr":3823,"Ġcapt":3824,"Ġadvances":3825,"Ġsex":3826,"Ġmanner":3827,"isation":3828,"Ġassembly":3829,"Ġattenuated":3830,"Ġreproductive":3831,"Ġhar":3832,"Ġmorph":3833,"Ġcontinuous":3834,"Ġaffinity":3835,"gal":3836,"Ġmanifest":3837,"fact":3838,"Ã©s":3839,"Ġmicroarr":3840,"Ġreducing":3841,"Ġ70":3842,"wa":3843,"Ġneeds":3844,"Ġ34":3845,"96":3846,"artic":3847,"Ġachieved":3848,"Ġheart":3849,"Ġdegree":3850,"Ġpic":3851,"Ġdependent":3852,"Ġdire":3853,"here":3854,"Ġdisrup":3855,"char":3856,"Ġenzymes":3857,"Ġmurine":3858,"fort":3859,"hm":3860,"Ġcos":3861,"Ġconfidence":3862,"mediate":3863,"Ġventil":3864,"Ġnucleocapsid":3865,"Ġprofess":3866,"Ġgenus":3867,"Ġcorona":3868,"Ġkinase":3869,"Ġmillion":3870,"hol":3871,"Ġbound":3872,"Ġallowed":3873,"57":3874,"Ġunderg":3875,"ck":3876,"ym":3877,"Ġexpressing":3878,"Ġprogram":3879,"Ġjanuary":3880,"ove":3881,"Ġmos":3882,"Ġveter":3883,"Ġdomestic":3884,"Ġhttps":3885,"Ġstages":3886,"Ġemph":3887,"Ġjap":3888,"Ġconcept":3889,"Ġpreprint":3890,"Ġelevated":3891,"tood":3892,"Ġsimult":3893,"Ġdistancing":3894,"Ġresource":3895,"Ġdegradation":3896,"Ġcontains":3897,"certain":3898,"Ġidentifying":3899,"ypt":3900,"Ġadaptive":3901,"Ġcomponent":3902,"Ġaccount":3903,"Ġproliferation":3904,"Ġelucid":3905,"Ġdecember":3906,"Ġsuspected":3907,"Ġantibiotics":3908,"46":3909,"Ġent":3910,"otherap":3911,"orrh":3912,"Ġhouse":3913,"Ġclinically":3914,"pet":3915,"Ġprobability":3916,"Ġsimultaneous":3917,"ls":3918,"md":3919,"Ġpubmed":3920,"Ġdig":3921,"Ġvon":3922,"enteritis":3923,"Ġcontacts":3924,"Ġuntil":3925,"Ġversus":3926,"Ġcirculating":3927,"Ġcontam":3928,"Ġsubstan":3929,"pepti":3930,"Ġtb":3931,"Ġrecord":3932,"Ġkn":3933,"iring":3934,"Ġcontrolled":3935,"Ġunderstood":3936,"Ġtermin":3937,"Ġanalyze":3938,"incip":3939,"Ġvolume":3940,"Ġcx":3941,"Ġens":3942,"Ġlinear":3943,"sign":3944,"Ġposition":3945,"Ġongoing":3946,"Ġenti":3947,"47":3948,"ku":3949,"Ã¡":3950,"Ġsynthes":3951,"Ġphosphory":3952,"Ġelic":3953,"Ġpersonal":3954,"Ġlys":3955,"immune":3956,"Ġmechanical":3957,"Ġml":3958,"Ġcaps":3959,"Ġsuccessfully":3960,"Ġprepar":3961,"Ġserve":3962,"Ġprophyl":3963,"Ġadverse":3964,"Ġmultiv":3965,"Ġhighlight":3966,"Ġcommunication":3967,"Ġabn":3968,"olitis":3969,"Ġleads":3970,"Ġgastroenteritis":3971,"ente":3972,"Ġdu":3973,"Ġmyel":3974,"mia":3975,"Ġimplemented":3976,"Ġcollection":3977,"zo":3978,"Ġface":3979,"Ġarter":3980,"Ġlock":3981,"Ġextre":3982,"Ġmetap":3983,"regulation":3984,"resist":3985,"prote":3986,"Ġvariable":3987,"Ġdensity":3988,"level":3989,"Ġassum":3990,"ert":3991,"Ġmolecule":3992,"Ġprognos":3993,"Ġorganisms":3994,"coronavirus":3995,"mi":3996,"Ġoccurs":3997,"Ġlargely":3998,"Ġextent":3999,"ĠÂ¼":4000,"Ġshedding":4001,"rin":4002,"Ġtlr":4003,"Ġfocused":4004,"Ġscience":4005,"Ġcys":4006,"Ġ2016":4007,"Ġexamination":4008,"Ġstre":4009,"lim":4010,"Ġexperience":4011,"Ġmucosal":4012,"Ġtransmiss":4013,"Ġdetec":4014,"Ġmathematic":4015,"Ġalveolar":4016,"Ġactivated":4017,"Ġquarantine":4018,"Ġuncle":4019,"Ġfamilies":4020,"Ġsubstantial":4021,"hyd":4022,"Ġlas":4023,"Ġconclud":4024,"Ġtherapeutics":4025,"Ġmoderate":4026,"Ġcodon":4027,"itions":4028,"Ġrev":4029,"Ġvary":4030,"Ġagg":4031,"cription":4032,"Ġlocated":4033,"kg":4034,"Ġeine":4035,"Ġcarb":4036,"bacter":4037,"Ġsolution":4038,"Ġspect":4039,"lic":4040,"Ġten":4041,"Ġdiabe":4042,"Ġcommercial":4043,"acoronavirus":4044,"Ġcity":4045,"Ġinfil":4046,"Ġframesh":4047,"pers":4048,"Ġgenotypes":4049,"Ġhybrid":4050,"clin":4051,"Ġcomputational":4052,"Ġconj":4053,"Ġsynthetic":4054,"Ġprocedures":4055,"Ġlonger":4056,"uv":4057,"Ġapril":4058,"Ġdefin":4059,"Ġpromote":4060,"Ġdifferential":4061,"oqu":4062,"aft":4063,"scale":4064,"Ġclassification":4065,"Ġrepresents":4066,"Ġcontent":4067,"Ġ2010":4068,"ondri":4069,"Ġrepl":4070,"Ġavoid":4071,"ercul":4072,"55":4073,"key":4074,"Ġtnf":4075,"Ġgenerate":4076,"Ġifitm":4077,"Ġbes":4078,"agglut":4079,"Ġsubsequently":4080,"Ġdetailed":4081,"linked":4082,"treated":4083,"Ġoff":4084,"through":4085,"Ġsurg":4086,"Ġunclear":4087,"nv":4088,"Ġhyd":4089,"Ġengine":4090,"Ġemployed":4091,"Ġthres":4092,"ories":4093,"Ġenrolled":4094,"Ġpoints":4095,"sh":4096,"upl":4097,"Ġalmost":4098,"Ġplants":4099,"Ġ42":4100,"Ġoriginal":4101,"ochondri":4102,"Ġevery":4103,"Ġplus":4104,"Ġvariables":4105,"Ġaccom":4106,"Ġscores":4107,"Ġlinked":4108,"Ġrecip":4109,"Ġfraction":4110,"Ġderiv":4111,"Ġparen":4112,"ulf":4113,"Ġnanop":4114,"Ġkorea":4115,"Ġfung":4116,"Ġimmunode":4117,"rology":4118,"Ġsuitable":4119,"Ġattem":4120,"Ġcapable":4121,"Ġultr":4122,"Ġhepat":4123,"bm":4124,"xiv":4125,"Î³":4126,"order":4127,"Ġunits":4128,"Ġdiarrho":4129,"Ġurban":4130,"Ġauthors":4131,"Ġalgorithm":4132,"Ġneonatal":4133,"Ġ65":4134,"Ġcataly":4135,"Ġasia":4136,"Ġhypert":4137,"Ġonline":4138,"Ġroom":4139,"Ġuniversity":4140,"Ġnine":4141,"Ġcount":4142,"Ġpair":4143,"Ġdevic":4144,"Ġdiscovered":4145,"Ġtransmembrane":4146,"Ġarg":4147,"Ġparticle":4148,"Ġsupplement":4149,"ustr":4150,"Ġbelie":4151,"Ġlay":4152,"Ġdied":4153,"Ġneutralization":4154,"au":4155,"organis":4156,"Ġhbov":4157,"structural":4158,"cc":4159,"Ġmedium":4160,"Ġquestionna":4161,"Ġpropag":4162,"ultry":4163,"Ġdenv":4164,"fy":4165,"hydro":4166,"Ġrecur":4167,"Ġexacerbations":4168,"Ġmaterial":4169,"Ġendot":4170,"Ġvalidated":4171,"inations":4172,"ending":4173,"Ġpolicies":4174,"pase":4175,"urity":4176,"Ġoccurrence":4177,"Ġmarked":4178,"Ġprotocol":4179,"Ġ/":4180,"Ġcompart":4181,"parent":4182,"Ġsubset":4183,"ferred":4184,"ĠÎ¼":4185,"Ġprimarily":4186,"host":4187,"Ġli":4188,"ques":4189,"Ġcytotox":4190,"Ġimprovement":4191,"Ġtransplantation":4192,"doi":4193,"Ġcalled":4194,"nit":4195,"Ġrenal":4196,"Ġsampling":4197,"Ġcomplexes":4198,"cre":4199,"ways":4200,"aci":4201,"Ġabove":4202,"ariate":4203,"Ġsimulation":4204,"Ġantigenic":4205,"Ġlicense":4206,"king":4207,"Ġstay":4208,"Ġendemic":4209,"Ġip":4210,"ata":4211,"une":4212,"Ġhomolog":4213,"Ġmitochondri":4214,"Ã¨":4215,"Ġpoultry":4216,"Ġgrowing":4217,"Ġetiology":4218,"66":4219,"ocal":4220,"chen":4221,"bry":4222,"otides":4223,"Ġencoding":4224,"Ġindirect":4225,"uration":4226,"Ġtm":4227,"Ġshe":4228,"Ġmen":4229,"open":4230,"Ġpla":4231,"Ġinvolving":4232,"ler":4233,"elling":4234,"Ġproteases":4235,"Ġrelationships":4236,"Ġusually":4237,"Ġann":4238,"Ġitaly":4239,"Ġsignificance":4240,"Ġfast":4241,"ico":4242,"ito":4243,"iav":4244,"Ġarticles":4245,"Ġcompr":4246,"Ġelements":4247,"Ġquestions":4248,"urally":4249,"Ġconsequences":4250,"Ġsufficient":4251,"oor":4252,"Ġsof":4253,"Ġ41":4254,"Ġmathematical":4255,"bal":4256,"Ġlethal":4257,"Ġpathology":4258,"bed":4259,"inform":4260,"Ġtraf":4261,"Ġuncertain":4262,"Ġequip":4263,"42":4264,"ply":4265,"Ġsimilarity":4266,"rich":4267,"Ġho":4268,"Ġcattle":4269,"Ġcandidates":4270,"Ġoverl":4271,"Ġautom":4272,"Ġparain":4273,"Ġabnormal":4274,"life":4275,"Ġrecommendations":4276,"Ġinduces":4277,"elf":4278,"Ġhighlights":4279,"Ġmaking":4280,"Ġdeep":4281,"Ġsimulations":4282,"usive":4283,"Ġlact":4284,"ports":4285,"ogenesis":4286,"Ġcausative":4287,"Ġindicates":4288,"Ġsymptomatic":4289,"Ġmalaria":4290,"Ġoxid":4291,"Ġknock":4292,"Ġanalog":4293,"Ġappears":4294,"Ġclusters":4295,"sin":4296,"Ġmap":4297,"Ġprovince":4298,"Ġeuropean":4299,"Ġside":4300,"Ġvul":4301,"emerg":4302,"Ġillustr":4303,"Ġvero":4304,"resistant":4305,"Ġred":4306,"Ġchicken":4307,"intestinal":4308,"rix":4309,"Ġempir":4310,"Ġchapter":4311,"ery":4312,"Ġbac":4313,"Ġrecovered":4314,"Ġalign":4315,"Ġsep":4316,"Ġvaccinated":4317,"reng":4318,"Ġpoli":4319,"Ġcf":4320,"erculosis":4321,"Ġaims":4322,"Ġproduct":4323,"Ġhypothesis":4324,"Â°":4325,"ows":4326,"Ġbaseline":4327,"Ġpredominant":4328,"Ġnanopartic":4329,"Ġantic":4330,"Ġhong":4331,"utum":4332,"Ġmarkers":4333,"Ġinoculated":4334,"Ġcrisis":4335,"Ġnerv":4336,"Ġcho":4337,"Ġpredictive":4338,"Ġhemat":4339,"Ġpreparedness":4340,"Ġthird":4341,"Ġhelic":4342,"Ġsirna":4343,"53":4344,"Ġ<":4345,"Ġparti":4346,"Ġque":4347,"Ġturn":4348,"Ġattr":4349,"Ġcharacterize":4350,"eds":4351,"igen":4352,"Ġenergy":4353,"Ġnear":4354,"Ġple":4355,"Ġkong":4356,"Ġincludes":4357,"utive":4358,"Ġjournal":4359,"Ġintroduced":4360,"Ġamount":4361,"Ġplos":4362,"oflu":4363,"Ġcalculated":4364,"64":4365,"ptions":4366,"Ġspace":4367,"Ġ47":4368,"patient":4369,"Ġvisual":4370,"Ġbiomark":4371,"Ġbronchiolitis":4372,"Ġnervous":4373,"ges":4374,"Ġprotect":4375,"Ġparainflu":4376,"Ġtas":4377,"ospor":4378,"Ġparv":4379,"Ġcopies":4380,"Ġsin":4381,"ylated":4382,"Ġlect":4383,"Ġstreng":4384,"Ġblot":4385,"Ġreporting":4386,"gery":4387,"bv":4388,"astic":4389,"Ġusage":4390,"Ġke":4391,"Ġdecl":4392,"Ġsurgical":4393,"cast":4394,"Ġbase":4395,"Ġcytome":4396,"Ġcc":4397,"leuk":4398,"acing":4399,"ready":4400,"Ġsteps":4401,"Ġglycos":4402,"Ġextreme":4403,"Ġweak":4404,"aced":4405,"Ġresistant":4406,"Ġattach":4407,"clinical":4408,"85":4409,"Ġ>":4410,"Ġnt":4411,"Ġcontrolling":4412,"Ġisolate":4413,"Ġefficiently":4414,"Ġbin":4415,"Ġhsv":4416,"Ġther":4417,"romb":4418,"Ġmixed":4419,"Ġcomor":4420,"Ġthereby":4421,"omics":4422,"Ġmaximum":4423,"Ġmotif":4424,"gly":4425,"atin":4426,"Ġconstructed":4427,"bov":4428,"ches":4429,"Ġsputum":4430,"Ġprofile":4431,"risk":4432,"Ġspp":4433,"genic":4434,"ĠÎ²":4435,"91":4436,"Ġachieve":4437,"Ġprofiles":4438,"Ġhalf":4439,"Ġalready":4440,"Ġtrache":4441,"Ġlymphocytes":4442,"Ġdemyel":4443,"Ġpreventive":4444,"67":4445,"Ġconsum":4446,"objective":4447,"hydr":4448,"Ø§":4449,"Ġembry":4450,"Ġinvolvement":4451,"Ġouts":4452,"Ġimmunodeficiency":4453,"ached":4454,"Ġparal":4455,"Ġarch":4456,"Ġiii":4457,"effec":4458,"Ġdefense":4459,"xy":4460,"Ġdisch":4461,"Ġanalysed":4462,"Ġreliable":4463,"length":4464,"Ġchemok":4465,"Ġpersistent":4466,"Ġtransmitted":4467,"Ġspectrum":4468,"Ġfatality":4469,"Ġrecorded":4470,"pret":4471,"quiring":4472,"Ġdiff":4473,"Ġremained":4474,"Ġincreasingly":4475,"pread":4476,"Ġpool":4477,"Ġinser":4478,"Ġbri":4479,"Ġdiabetes":4480,"Ġion":4481,"usted":4482,"Ġarab":4483,"Ġparainfluenza":4484,"Ġdivid":4485,"Ġvariant":4486,"Ġmember":4487,"Ġpossess":4488,"Ġaffecting":4489,"Ġchickens":4490,"Ġlarger":4491,"ward":4492,"Ġdepartment":4493,"tam":4494,"Ġimmunocom":4495,"Ġ43":4496,"negative":4497,"Ġapproved":4498,"Ġadministered":4499,"izations":4500,"Ġprincip":4501,"Ġvirulent":4502,"ifications":4503,"Ġimmunoglob":4504,"Ġthreshold":4505,"Ġrig":4506,"Ġresolution":4507,"Ġtransform":4508,"Ġclassified":4509,"Ġpoorly":4510,"Ġfragment":4511,"Ġundergo":4512,"ifting":4513,"umin":4514,"Ġpi":4515,"Ġchann":4516,"Ġ44":4517,"Ġaccumulation":4518,"roteins":4519,"agic":4520,"Ġspe":4521,"Ġstudents":4522,"fered":4523,"Ġelder":4524,"Ġpossibility":4525,"Ġpreventing":4526,"Ġbuilding":4527,"range":4528,"Ġpcv":4529,"Ġinst":4530,"ĠÎ±":4531,"chers":4532,"Ġepisodes":4533,"Ġveterinary":4534,"Ġpartial":4535,"ika":4536,"Ġcollabor":4537,"Ġpossib":4538,"Ġswab":4539,"Ġsummary":4540,"Ġsituation":4541,"Ġphysiological":4542,"Ġeducation":4543,"Ġdetecting":4544,"ungen":4545,"bruary":4546,"Ġ75":4547,"Ġloop":4548,"otherapy":4549,"Ġname":4550,"Ġconver":4551,"Ġsignals":4552,"Ġcritically":4553,"Ġvulner":4554,"Ġclim":4555,"ields":4556,"Ġscreened":4557,"Ġhighligh":4558,"Ġcomposition":4559,"94":4560,"vation":4561,"inin":4562,"Ġimmunological":4563,"92":4564,"Ġnf":4565,"Ġcompl":4566,"aviruses":4567,"62":4568,"Ġbone":4569,"omer":4570,"semin":4571,"drp":4572,"Ġreading":4573,"Ġputative":4574,"Ġentire":4575,"Ġpresents":4576,"Ġelse":4577,"Ġimportantly":4578,"Ġgastrointestinal":4579,"Ġencephalitis":4580,"mat":4581,"acet":4582,"ensus":4583,"Ġmatrix":4584,"Ġang":4585,"Ġnam":4586,"amy":4587,"oprotein":4588,"ichia":4589,"Ġtit":4590,"arb":4591,"Ġnever":4592,"nel":4593,"va":4594,"Ġren":4595,"undred":4596,"Ġpublisher":4597,"Ġmetapneum":4598,"Ġak":4599,"Ġextracted":4600,"path":4601,"Ġimmunoflu":4602,"tingu":4603,"Ġdysfunction":4604,"Ġscenarios":4605,"Ġcp":4606,"Ġds":4607,"Ġfarm":4608,"Ġcoupl":4609,"Ġquick":4610,"Ġdifferentiation":4611,"Ġdro":4612,"Ġexplored":4613,"Ġfarms":4614,"Ġapparent":4615,"Ġpathological":4616,"Ġod":4617,"Ġback":4618,"ching":4619,"Ġmutants":4620,"Ġlaborator":4621,"Ġpp":4622,"unc":4623,"phosph":4624,"Ġinsight":4625,"Ġsecretion":4626,"Ġcapsid":4627,"Ġelderly":4628,"Ġnodes":4629,"Ġavailability":4630,"Ġbreath":4631,"oring":4632,"Ġseason":4633,"Ġsynthesized":4634,"Ġfinal":4635,"Ġsurgery":4636,"Ġfeed":4637,"Ġref":4638,"Ġrights":4639,"Ġcannot":4640,"Ġplate":4641,"Ġprolong":4642,"Ġfav":4643,"Ġbackground":4644,"Ġdistingu":4645,"Ġbiochemical":4646,"Ġfemale":4647,"Ġtraffic":4648,"Ġhu":4649,"Ġtypical":4650,"Ġstrept":4651,"oquine":4652,"cm":4653,"Ġinterestingly":4654,"Ġoffer":4655,"truct":4656,"Ġtri":4657,"Ġidentity":4658,"Ġcurve":4659,"Ġprograms":4660,"kr":4661,"Ġcs":4662,"Ġeuk":4663,"ulatory":4664,"Ġdistributed":4665,"Ġcosts":4666,"Ġmetapneumovirus":4667,"ophys":4668,"Ġextracellular":4669,"Ġprevalent":4670,"Ġmetabolism":4671,"Ġtuberculosis":4672,"Ġearl":4673,"Ġmosqu":4674,"Ġincubation":4675,"Ġwhee":4676,"Ġresearchers":4677,"Ġconcerns":4678,"Ġbirds":4679,"Ġhence":4680,"Ġaerosol":4681,"Ġnit":4682,"osin":4683,"olic":4684,"ovascular":4685,"Ġeukary":4686,"78":4687,"Ġdissemin":4688,"Ġshowing":4689,"Ġaug":4690,"Ġcenter":4691,"orb":4692,"Ġprocedure":4693,"Ġexce":4694,"infections":4695,"Ġdescribes":4696,"Ġdiarrhoea":4697,"Ġimages":4698,"Ġuses":4699,"Ġcomparable":4700,"Ġregional":4701,"aries":4702,"Ġconst":4703,"etal":4704,"Ġinvestigations":4705,"Ġassociations":4706,"Ġillnesses":4707,"Ġinoculation":4708,"tb":4709,"acquired":4710,"Ġshock":4711,"Ġ2017":4712,"Ġflavi":4713,"Ġextraction":4714,"Ġlibrary":4715,"Ġbei":4716,"Ġcompletely":4717,"Ġclearance":4718,"Ġbirth":4719,"ole":4720,"Ġ72":4721,"Ġecon":4722,"Ġinitiation":4723,"Ġmaterials":4724,"ocks":4725,"Ġbenefit":4726,"Ġoccup":4727,"aa":4728,"acchar":4729,"severe":4730,"romised":4731,"Ġpathogenicity":4732,"imeric":4733,"udi":4734,"Ġcardiac":4735,"Ġmilk":4736,"sw":4737,"Ġcm":4738,"Ġ55":4739,"avir":4740,"Ġfal":4741,"Ġ46":4742,"Ġhemorrh":4743,"Ġhemagglut":4744,"bri":4745,"Ġtheory":4746,"Ġmel":4747,"Ġhundred":4748,"Ġcontag":4749,"Ġsequenced":4750,"Ġvirion":4751,"Ġlimitations":4752,"Ġmosquito":4753,"acting":4754,"Ġmodification":4755,"Ġrbd":4756,"Ġmicroorganis":4757,"Ġfebruary":4758,"ras":4759,"Ġtake":4760,"olding":4761,"olgi":4762,"Ġcoverage":4763,"Ġcommunities":4764,"Ġrecipients":4765,"Ġdiffer":4766,"Ġimmunosup":4767,"Ġcontained":4768,"itiz":4769,"Ġmemory":4770,"Ġgenetically":4771,"Ġschool":4772,"Ġcold":4773,"idespread":4774,"Ġendothelial":4775,"Â±":4776,"ash":4777,"vier":4778,"Ġselective":4779,"eling":4780,"Ġdecades":4781,"Ġconsidering":4782,"02":4783,"Ġwer":4784,"Ġrelev":4785,"Ġbarrier":4786,"Ġfaec":4787,"rxiv":4788,"Ġwidespread":4789,"ering":4790,"aning":4791,"Ġintegrated":4792,"Ġtrends":4793,"Ġplanning":4794,"Ġubiquitin":4795,"Ġequipment":4796,"Ġlaboratories":4797,"faces":4798,"Ġax":4799,"anal":4800,"Ġreviews":4801,"Ġanalytical":4802,"Ġrecommended":4803,"81":4804,"wan":4805,"Ġagree":4806,"Ġattachment":4807,"Ġrad":4808,"Ġ99":4809,"ged":4810,"Ġnos":4811,"Ġgas":4812,"Ġqual":4813,"Ġnurses":4814,"Ġelectro":4815,"ulum":4816,"imen":4817,"rest":4818,"Ġfigure":4819,"Ġdataset":4820,"Ġauf":4821,"Ġtheore":4822,"olid":4823,"tra":4824,"ogenicity":4825,"Ġwest":4826,"fected":4827,"03":4828,"09":4829,"Ġadequ":4830,"Ġmethyl":4831,"ocytosis":4832,"Ġfacilities":4833,"Ġskin":4834,"pur":4835,"Ġclon":4836,"aceu":4837,"position":4838,"Ġlocation":4839,"Ġlogistic":4840,"Ġaccept":4841,"Ġdiet":4842,"Ġcdna":4843,"axis":4844,"ocar":4845,"Ġdiagnostics":4846,"Ġtemporal":4847,"cherichia":4848,"hs":4849,"Ġdefec":4850,"Ġdiver":4851,"Ġissue":4852,"Ġtai":4853,"Ġos":4854,"Ġreactions":4855,"Ġvirions":4856,"72":4857,"dase":4858,"Ġbil":4859,"Ġpromoter":4860,"Ġobservations":4861,"Ġfragments":4862,"iness":4863,"Ġantag":4864,"Ġlockdown":4865,"ivir":4866,"Ġ56":4867,"Ġsubstrate":4868,"tl":4869,"Ġmd":4870,"ya":4871,"Ġdc":4872,"Ġexplo":4873,"Ġcardiovascular":4874,"Ġaspir":4875,"Ġmeta":4876,"Ġzu":4877,"Ġmanifestations":4878,"leukin":4879,"56":4880,"Ġvaluable":4881,"Ġattack":4882,"Ġservice":4883,"isions":4884,"amine":4885,"Ġorgans":4886,"Ġrs":4887,"86":4888,"Ġcum":4889,"ticos":4890,"Ġcomparative":4891,"Ġrecruit":4892,"pedv":4893,"Ġpack":4894,"Ġbor":4895,"Ġga":4896,"Ġserological":4897,"nose":4898,"Ġobjectives":4899,"off":4900,"Ġclassical":4901,"Ġparameter":4902,"Ġstatistically":4903,"Ġreason":4904,"Ġphosphorylation":4905,"ifi":4906,"Ġchallenging":4907,"Ġhab":4908,"Ġacquired":4909,"Ġkine":4910,"Ġcopd":4911,"Ġcen":4912,"enty":4913,"Ġranging":4914,"93":4915,"with":4916,"Ġescherichia":4917,"Ġze":4918,"aden":4919,"Ġdemand":4920,"Ġglycoproteins":4921,"Ġmicroarray":4922,"Ġfeas":4923,"Ġnecrosis":4924,"Ġvalidation":4925,"rocytes":4926,"section":4927,"Ġau":4928,"Ġtre":4929,"Ġorth":4930,"Ġhet":4931,"Ġextended":4932,"Ġepithel":4933,"Ġgeograph":4934,"Ġmrnas":4935,"Ġtax":4936,"Ġformed":4937,"Ġinfl":4938,"Ġairborne":4939,"ĠÂµ":4940,"Ġrandomized":4941,"Ġantagon":4942,"Ġgraph":4943,"Ġ96":4944,"Ġquestionnaire":4945,"Ġoverview":4946,"teen":4947,"Ġthromb":4948,"ulative":4949,"ochem":4950,"Ġpredictions":4951,"Ġcontributed":4952,"Ġfluorescence":4953,"Ġtrigger":4954,"Ġtrend":4955,"Îº":4956,"Ġcovs":4957,"idase":4958,"Ġpresenting":4959,"Ġlymphocyte":4960,"Ġdemographic":4961,"throughput":4962,"ired":4963,"Ġcrypt":4964,"Ġphenotype":4965,"Ġtoward":4966,"Ġenterovirus":4967,"Ġevolved":4968,"Ġpercentage":4969,"Ġaggreg":4970,"openia":4971,"rv":4972,"Ġrequiring":4973,"Ġglobally":4974,"Ġslow":4975,"Ġautoimmune":4976,"Ġdivided":4977,"Ġhla":4978,"Ġhygi":4979,"Ġrabb":4980,"Ġhor":4981,"ada":4982,"Ġarti":4983,"Ġcarry":4984,"Ġcultured":4985,"Ġown":4986,"ye":4987,"Ġlik":4988,"Ġexplain":4989,"Ġcharacteristic":4990,"Ġrelevance":4991,"ota":4992,"rometry":4993,"cript":4994,"Ġcontribution":4995,"Ġurgent":4996,"Ġâī":4997,"04":4998,"52":4999}